{
  "version": "1.0",
  "truncation": null,
  "padding": null,
  "added_tokens": [
    {
      "id": 0,
      "content": "<sos>",
      "single_word": false,
      "lstrip": false,
      "rstrip": false,
      "normalized": false,
      "special": true
    },
    {
      "id": 1,
      "content": "<pad>",
      "single_word": false,
      "lstrip": false,
      "rstrip": false,
      "normalized": false,
      "special": true
    },
    {
      "id": 2,
      "content": "<eos>",
      "single_word": false,
      "lstrip": false,
      "rstrip": false,
      "normalized": false,
      "special": true
    },
    {
      "id": 3,
      "content": "<unk>",
      "single_word": false,
      "lstrip": false,
      "rstrip": false,
      "normalized": false,
      "special": true
    },
    {
      "id": 4,
      "content": "<mask>",
      "single_word": false,
      "lstrip": false,
      "rstrip": false,
      "normalized": false,
      "special": true
    }
  ],
  "normalizer": null,
  "pre_tokenizer": {
    "type": "ByteLevel",
    "add_prefix_space": false,
    "trim_offsets": true,
    "use_regex": true
  },
  "post_processor": {
    "type": "ByteLevel",
    "add_prefix_space": true,
    "trim_offsets": false,
    "use_regex": true
  },
  "decoder": {
    "type": "ByteLevel",
    "add_prefix_space": true,
    "trim_offsets": true,
    "use_regex": true
  },
  "model": {
    "type": "BPE",
    "dropout": null,
    "unk_token": null,
    "continuing_subword_prefix": null,
    "end_of_word_suffix": null,
    "fuse_unk": false,
    "vocab": {
      "<sos>": 0,
      "<pad>": 1,
      "<eos>": 2,
      "<unk>": 3,
      "<mask>": 4,
      "!": 5,
      "\"": 6,
      "#": 7,
      "$": 8,
      "%": 9,
      "&": 10,
      "'": 11,
      "(": 12,
      ")": 13,
      "*": 14,
      "+": 15,
      ",": 16,
      "-": 17,
      ".": 18,
      "/": 19,
      "0": 20,
      "1": 21,
      "2": 22,
      "3": 23,
      "4": 24,
      "5": 25,
      "6": 26,
      "7": 27,
      "8": 28,
      "9": 29,
      ":": 30,
      ";": 31,
      "<": 32,
      "=": 33,
      ">": 34,
      "?": 35,
      "@": 36,
      "A": 37,
      "B": 38,
      "C": 39,
      "D": 40,
      "E": 41,
      "F": 42,
      "G": 43,
      "H": 44,
      "I": 45,
      "J": 46,
      "K": 47,
      "L": 48,
      "M": 49,
      "N": 50,
      "O": 51,
      "P": 52,
      "Q": 53,
      "R": 54,
      "S": 55,
      "T": 56,
      "U": 57,
      "V": 58,
      "W": 59,
      "X": 60,
      "Y": 61,
      "Z": 62,
      "[": 63,
      "\\": 64,
      "]": 65,
      "^": 66,
      "_": 67,
      "`": 68,
      "a": 69,
      "b": 70,
      "c": 71,
      "d": 72,
      "e": 73,
      "f": 74,
      "g": 75,
      "h": 76,
      "i": 77,
      "j": 78,
      "k": 79,
      "l": 80,
      "m": 81,
      "n": 82,
      "o": 83,
      "p": 84,
      "q": 85,
      "r": 86,
      "s": 87,
      "t": 88,
      "u": 89,
      "v": 90,
      "w": 91,
      "x": 92,
      "y": 93,
      "z": 94,
      "{": 95,
      "|": 96,
      "}": 97,
      "~": 98,
      "¡": 99,
      "¢": 100,
      "£": 101,
      "¤": 102,
      "¥": 103,
      "¦": 104,
      "§": 105,
      "¨": 106,
      "©": 107,
      "ª": 108,
      "«": 109,
      "¬": 110,
      "®": 111,
      "¯": 112,
      "°": 113,
      "±": 114,
      "²": 115,
      "³": 116,
      "´": 117,
      "µ": 118,
      "¶": 119,
      "·": 120,
      "¸": 121,
      "¹": 122,
      "º": 123,
      "»": 124,
      "¼": 125,
      "½": 126,
      "¾": 127,
      "¿": 128,
      "À": 129,
      "Á": 130,
      "Â": 131,
      "Ã": 132,
      "Ä": 133,
      "Å": 134,
      "Æ": 135,
      "Ç": 136,
      "È": 137,
      "É": 138,
      "Ê": 139,
      "Ë": 140,
      "Ì": 141,
      "Í": 142,
      "Î": 143,
      "Ï": 144,
      "Ð": 145,
      "Ñ": 146,
      "Ò": 147,
      "Ó": 148,
      "Ô": 149,
      "Õ": 150,
      "Ö": 151,
      "×": 152,
      "Ø": 153,
      "Ù": 154,
      "Ú": 155,
      "Û": 156,
      "Ü": 157,
      "Ý": 158,
      "Þ": 159,
      "ß": 160,
      "à": 161,
      "á": 162,
      "â": 163,
      "ã": 164,
      "ä": 165,
      "å": 166,
      "æ": 167,
      "ç": 168,
      "è": 169,
      "é": 170,
      "ê": 171,
      "ë": 172,
      "ì": 173,
      "í": 174,
      "î": 175,
      "ï": 176,
      "ð": 177,
      "ñ": 178,
      "ò": 179,
      "ó": 180,
      "ô": 181,
      "õ": 182,
      "ö": 183,
      "÷": 184,
      "ø": 185,
      "ù": 186,
      "ú": 187,
      "û": 188,
      "ü": 189,
      "ý": 190,
      "þ": 191,
      "ÿ": 192,
      "Ā": 193,
      "ā": 194,
      "Ă": 195,
      "ă": 196,
      "Ą": 197,
      "ą": 198,
      "Ć": 199,
      "ć": 200,
      "Ĉ": 201,
      "ĉ": 202,
      "Ċ": 203,
      "ċ": 204,
      "Č": 205,
      "č": 206,
      "Ď": 207,
      "ď": 208,
      "Đ": 209,
      "đ": 210,
      "Ē": 211,
      "ē": 212,
      "Ĕ": 213,
      "ĕ": 214,
      "Ė": 215,
      "ė": 216,
      "Ę": 217,
      "ę": 218,
      "Ě": 219,
      "ě": 220,
      "Ĝ": 221,
      "ĝ": 222,
      "Ğ": 223,
      "ğ": 224,
      "Ġ": 225,
      "ġ": 226,
      "Ģ": 227,
      "ģ": 228,
      "Ĥ": 229,
      "ĥ": 230,
      "Ħ": 231,
      "ħ": 232,
      "Ĩ": 233,
      "ĩ": 234,
      "Ī": 235,
      "ī": 236,
      "Ĭ": 237,
      "ĭ": 238,
      "Į": 239,
      "į": 240,
      "İ": 241,
      "ı": 242,
      "Ĳ": 243,
      "ĳ": 244,
      "Ĵ": 245,
      "ĵ": 246,
      "Ķ": 247,
      "ķ": 248,
      "ĸ": 249,
      "Ĺ": 250,
      "ĺ": 251,
      "Ļ": 252,
      "ļ": 253,
      "Ľ": 254,
      "ľ": 255,
      "Ŀ": 256,
      "ŀ": 257,
      "Ł": 258,
      "ł": 259,
      "Ń": 260,
      "Ġd": 261,
      "Ġa": 262,
      "es": 263,
      "Ġp": 264,
      "ra": 265,
      "Ġe": 266,
      "os": 267,
      "Ġc": 268,
      "nt": 269,
      "Ġde": 270,
      "čĊ": 271,
      "er": 272,
      "as": 273,
      "Ġs": 274,
      "or": 275,
      "qu": 276,
      "is": 277,
      "Ã£": 278,
      "re": 279,
      "Ã£o": 280,
      "Ġm": 281,
      "Ġn": 282,
      "ad": 283,
      "Ġo": 284,
      "in": 285,
      "ar": 286,
      "Ġco": 287,
      "ia": 288,
      "Ġt": 289,
      "Ġqu": 290,
      "Ã§": 291,
      "ent": 292,
      "Ġf": 293,
      "Ġque": 294,
      "ic": 295,
      "id": 296,
      "ro": 297,
      "nd": 298,
      "ta": 299,
      "al": 300,
      "um": 301,
      "Ã©": 302,
      "Ġdo": 303,
      "em": 304,
      "Ã¡": 305,
      "io": 306,
      "Ġcom": 307,
      "to": 308,
      "Ã§Ã£o": 309,
      "im": 310,
      "Ġda": 311,
      "ara": 312,
      "Ġem": 313,
      "en": 314,
      "ÃŃ": 315,
      "Ġv": 316,
      "el": 317,
      "am": 318,
      "il": 319,
      "Ġre": 320,
      "Ġum": 321,
      "ei": 322,
      "Ġes": 323,
      "ol": 324,
      "an": 325,
      "Ġse": 326,
      "res": 327,
      "Ġno": 328,
      "so": 329,
      "it": 330,
      "Ġpara": 331,
      "ul": 332,
      "ĠP": 333,
      "iv": 334,
      "ĠA": 335,
      "Ġin": 336,
      "ado": 337,
      "ĠC": 338,
      "ou": 339,
      "Ġl": 340,
      "Ġg": 341,
      "Ġb": 342,
      "ndo": 343,
      "ente": 344,
      "nc": 345,
      "us": 346,
      "ĠS": 347,
      "ĠB": 348,
      "Ã³": 349,
      "at": 350,
      "ir": 351,
      "aÃ§Ã£o": 352,
      "ed": 353,
      "ĠM": 354,
      "ĠE": 355,
      "ist": 356,
      "Ġpro": 357,
      "Ãª": 358,
      "iz": 359,
      "ut": 360,
      "ns": 361,
      "ec": 362,
      "gu": 363,
      "Ġh": 364,
      "Ġna": 365,
      "ais": 366,
      "Ġpor": 367,
      "era": 368,
      "ĠÃ©": 369,
      "ĠnÃ£o": 370,
      "ri": 371,
      "ras": 372,
      "le": 373,
      "Ġuma": 374,
      "om": 375,
      "Ġ(": 376,
      "Ãµ": 377,
      "Ãµes": 378,
      "ento": 379,
      "Ġas": 380,
      "do": 381,
      "ĠR": 382,
      "ĠF": 383,
      "Ġ2": 384,
      "Ġ\"": 385,
      "Ãº": 386,
      "Ġos": 387,
      "te": 388,
      "Ġfo": 389,
      "ac": 390,
      "ade": 391,
      "on": 392,
      "ica": 393,
      "oc": 394,
      "ada": 395,
      "Ġdes": 396,
      "se": 397,
      "Ġap": 398,
      "Ġest": 399,
      "Ġex": 400,
      "ion": 401,
      "od": 402,
      "Ġpel": 403,
      "Ġj": 404,
      "Ġcont": 405,
      "ma": 406,
      "un": 407,
      "Ġal": 408,
      "ov": 409,
      "ados": 410,
      "ant": 411,
      "Ġdos": 412,
      "Ġ1": 413,
      "ig": 414,
      "ĠÃ": 415,
      "ĠO": 416,
      "he": 417,
      "Ġan": 418,
      "Ġac": 419,
      "ĠN": 420,
      "ob": 421,
      "ha": 422,
      "Ġsu": 423,
      "idade": 424,
      "ĠT": 425,
      "et": 426,
      "po": 427,
      "Ġat": 428,
      "rio": 429,
      "Ã§Ãµes": 430,
      "Ġpr": 431,
      "ĠD": 432,
      "Ġser": 433,
      "ho": 434,
      "Ġ20": 435,
      "Ġmais": 436,
      "da": 437,
      "ern": 438,
      "ncia": 439,
      "ram": 440,
      "Ġent": 441,
      "Ġpa": 442,
      "ĠL": 443,
      "ura": 444,
      "Ġao": 445,
      "Ġcomo": 446,
      "ido": 447,
      "de": 448,
      "\",": 449,
      "Ã©m": 450,
      "Ã§a": 451,
      "int": 452,
      "ve": 453,
      "est": 454,
      "âĢ": 455,
      "Ġfoi": 456,
      "Ġpre": 457,
      "Ġdis": 458,
      "ĠÃł": 459,
      "ĠG": 460,
      "ores": 461,
      "Ġtra": 462,
      "ĠJ": 463,
      "ĠI": 464,
      "eg": 465,
      "ai": 466,
      "ros": 467,
      "Ġpres": 468,
      "ando": 469,
      "rasil": 470,
      "la": 471,
      "end": 472,
      "va": 473,
      "bl": 474,
      "Ġres": 475,
      "sa": 476,
      "Ãªncia": 477,
      "Ġdi": 478,
      "Ġim": 479,
      "Ġpar": 480,
      "eira": 481,
      "son": 482,
      "ico": 483,
      "ur": 484,
      "ont": 485,
      "ial": 486,
      "ĠâĢ": 487,
      "esso": 488,
      "Ġter": 489,
      "Ġtem": 490,
      "ab": 491,
      "ito": 492,
      "Ġcons": 493,
      "ria": 494,
      "Ġmu": 495,
      "eiro": 496,
      "mo": 497,
      "st": 498,
      "Ġrec": 499,
      "Ġint": 500,
      "aro": 501,
      "pres": 502,
      "Ġdas": 503,
      "Ġper": 504,
      "Ġcon": 505,
      "ida": 506,
      "ista": 507,
      "go": 508,
      "olson": 509,
      "ĠU": 510,
      "ru": 511,
      "amb": 512,
      "ita": 513,
      "du": 514,
      "Ġfor": 515,
      "Ġcomp": 516,
      "ip": 517,
      "Ġsob": 518,
      "nte": 519,
      "Ġmil": 520,
      "Ġsegu": 521,
      "ens": 522,
      "Ġpod": 523,
      "ÃŃc": 524,
      "olsonaro": 525,
      "Ġthe": 526,
      "inist": 527,
      "mente": 528,
      "Ġou": 529,
      "Ġel": 530,
      "idente": 531,
      "fic": 532,
      "for": 533,
      "Ġfa": 534,
      "ambÃ©m": 535,
      "overn": 536,
      "Ġele": 537,
      "Ġpelo": 538,
      "adas": 539,
      "ess": 540,
      "Ġaf": 541,
      "ĠBrasil": 542,
      "oto": 543,
      "ing": 544,
      "ĠBolsonaro": 545,
      "Ġout": 546,
      "vel": 547,
      "ina": 548,
      "Ġpol": 549,
      "pl": 550,
      "Ġmas": 551,
      "por": 552,
      "and": 553,
      "Ġcas": 554,
      "Ġsobre": 555,
      "Ġsem": 556,
      "ĠtambÃ©m": 557,
      "Ġentre": 558,
      "Ġto": 559,
      "Ġen": 560,
      "co": 561,
      "Ġgovern": 562,
      "pos": 563,
      "imento": 564,
      "Ġpela": 565,
      "Ã¡rio": 566,
      "Ġab": 567,
      "ÃŃt": 568,
      "ĠâĢĶ": 569,
      "ias": 570,
      "ud": 571,
      "Ġpas": 572,
      "),": 573,
      "Ġnos": 574,
      "\".": 575,
      "Ã¢": 576,
      "Ġpos": 577,
      "ÃŃs": 578,
      "ers": 579,
      "que": 580,
      "Ġw": 581,
      "eu": 582,
      "tos": 583,
      "Ġof": 584,
      "ĠV": 585,
      "Ġpesso": 586,
      "ora": 587,
      "ez": 588,
      "Ġpresidente": 589,
      "eral": 590,
      "entos": 591,
      "amento": 592,
      "eito": 593,
      "ional": 594,
      "Ġdiz": 595,
      "itu": 596,
      "av": 597,
      "ag": 598,
      "Ġis": 599,
      "Ġmes": 600,
      "Ġcontra": 601,
      "Ġam": 602,
      "ib": 603,
      "og": 604,
      "eb": 605,
      "Ġar": 606,
      "iu": 607,
      "Ġesta": 608,
      "Ġreg": 609,
      "ust": 610,
      "Ġ202": 611,
      "Ġanos": 612,
      "pre": 613,
      "Ġcr": 614,
      "Ġafir": 615,
      "Ġpart": 616,
      "rios": 617,
      "Ã´": 618,
      "Ãºbl": 619,
      "ap": 620,
      "Ġass": 621,
      "Ġesp": 622,
      "ĠestÃ¡": 623,
      "ĠH": 624,
      "enc": 625,
      "Ã³s": 626,
      "inda": 627,
      "Ġ3": 628,
      "Ã§o": 629,
      "ĠPa": 630,
      "Ġgoverno": 631,
      "Ġdec": 632,
      "ulo": 633,
      "ĠjÃ¡": 634,
      "ivo": 635,
      "aram": 636,
      "idos": 637,
      "ĠFoto": 638,
      "iÃ§Ã£o": 639,
      "Ġdisse": 640,
      "bal": 641,
      "aria": 642,
      "erc": 643,
      "nde": 644,
      "ntes": 645,
      "Ġfaz": 646,
      "ja": 647,
      "ual": 648,
      "Ġag": 649,
      "Ġ201": 650,
      "Ġme": 651,
      "egu": 652,
      "Ġind": 653,
      "ĠsÃ£o": 654,
      "Ġesc": 655,
      "fer": 656,
      "Ġinv": 657,
      "Ġsua": 658,
      "Ã©d": 659,
      "Ġad": 660,
      "icas": 661,
      "inha": 662,
      "Ġrel": 663,
      "ĠpaÃŃs": 664,
      "ador": 665,
      "ep": 666,
      "Ġainda": 667,
      "ter": 668,
      "iva": 669,
      "Ġcor": 670,
      "ev": 671,
      "ades": 672,
      "entes": 673,
      "Ġcar": 674,
      "icos": 675,
      "Ġch": 676,
      "ira": 677,
      "iÃ£o": 678,
      "ios": 679,
      "Ġfal": 680,
      "rec": 681,
      "tor": 682,
      "Ġmen": 683,
      "iais": 684,
      "istas": 685,
      "Ġtrabal": 686,
      "Ġempres": 687,
      "ima": 688,
      "Ġproc": 689,
      "ran": 690,
      "Ġnas": 691,
      "anto": 692,
      "Ġgra": 693,
      "je": 694,
      "Ġseu": 695,
      "izaÃ§Ã£o": 696,
      "op": 697,
      "Ġano": 698,
      "ĠatÃ©": 699,
      "emb": 700,
      "Ġor": 701,
      "Ġpessoas": 702,
      "tam": 703,
      "Ġand": 704,
      "Ġinc": 705,
      "Ġdire": 706,
      "Ġsoc": 707,
      "mou": 708,
      "Ġob": 709,
      "Ãªs": 710,
      "up": 711,
      "ult": 712,
      ").": 713,
      "ÃŃl": 714,
      "Ġth": 715,
      "Ã¡rios": 716,
      "tal": 717,
      "ares": 718,
      "isa": 719,
      "Ġsa": 720,
      "no": 721,
      "unc": 722,
      "inh": 723,
      "idades": 724,
      "rib": 725,
      "Ġr": 726,
      "anc": 727,
      "ĠpolÃŃt": 728,
      "Ã§as": 729,
      "esta": 730,
      "Ġ-": 731,
      "Ġte": 732,
      "sÃ£o": 733,
      "ost": 734,
      "enas": 735,
      "con": 736,
      "ula": 737,
      "Ġforam": 738,
      "ver": 739,
      "Ġ4": 740,
      "Ġmai": 741,
      "Ġtod": 742,
      "Ġche": 743,
      "if": 744,
      "Ġisso": 745,
      "amente": 746,
      "Ġdia": 747,
      "ĠAl": 748,
      "ific": 749,
      "Ġcl": 750,
      "Ġdef": 751,
      "rou": 752,
      "Ġminist": 753,
      "me": 754,
      "adores": 755,
      "00": 756,
      "Ġ5": 757,
      "hÃµes": 758,
      "Ġprim": 759,
      "Ġinvest": 760,
      "her": 761,
      "ĠUn": 762,
      "gem": 763,
      "ederal": 764,
      "nda": 765,
      "Ġev": 766,
      "ĠPaulo": 767,
      "idas": 768,
      "Ġmuito": 769,
      "Ġped": 770,
      "Ġmor": 771,
      "ot": 772,
      "arc": 773,
      "ĠhÃ¡": 774,
      "Ġbrasil": 775,
      "Ġpass": 776,
      "Ġenc": 777,
      "iam": 778,
      "ĠÃº": 779,
      "Ġver": 780,
      "ĠSÃ£o": 781,
      "tou": 782,
      "ĠâĢĵ": 783,
      "Ġoc": 784,
      "isÃ£o": 785,
      "ga": 786,
      "ĠpÃºbl": 787,
      "ĠprÃ³": 788,
      "Ġus": 789,
      "Ġman": 790,
      "Ã©rio": 791,
      "Ġquando": 792,
      "Ġpode": 793,
      "Ġmaior": 794,
      "Ġtr": 795,
      "Ġera": 796,
      "inc": 797,
      "Ġvac": 798,
      "Ġinfor": 799,
      "Ġpes": 800,
      "duÃ§Ã£o": 801,
      "Ġmed": 802,
      "Ġdiv": 803,
      "eiros": 804,
      "Ġqual": 805,
      "ĠÃ¡": 806,
      "entar": 807,
      "Ãºde": 808,
      "Qu": 809,
      "Em": 810,
      "Ġinf": 811,
      "Ġvez": 812,
      "ral": 813,
      "Ġpl": 814,
      "eram": 815,
      "Ġnov": 816,
      "Ġinter": 817,
      "tas": 818,
      "porta": 819,
      "rar": 820,
      "Ġeu": 821,
      "Ġmesmo": 822,
      "Ġop": 823,
      "ĠEst": 824,
      "ior": 825,
      "tar": 826,
      "Ġav": 827,
      "ix": 828,
      "orn": 829,
      "lo": 830,
      "Ġprec": 831,
      "endo": 832,
      "Ġcaso": 833,
      "Ġneg": 834,
      "unt": 835,
      "Ã¡t": 836,
      "ÃŃd": 837,
      "ĠEm": 838,
      "itos": 839,
      ".\"": 840,
      "aÃ§Ãµes": 841,
      "lu": 842,
      "Ġposs": 843,
      "Ġreal": 844,
      "inal": 845,
      "Ġcam": 846,
      "Ġela": 847,
      "Ġra": 848,
      "veis": 849,
      "ÃŃvel": 850,
      "eraÃ§Ã£o": 851,
      "Ġfil": 852,
      "Ġtrans": 853,
      "ana": 854,
      "Ġdep": 855,
      "Ġconc": 856,
      "itar": 857,
      "udo": 858,
      "ema": 859,
      "ubl": 860,
      "Ġaos": 861,
      "Ġpoder": 862,
      "ase": 863,
      "ĠCom": 864,
      "Ã´n": 865,
      "ian": 866,
      "aix": 867,
      "anh": 868,
      "Ġconf": 869,
      "ÃŃcia": 870,
      "Ġval": 871,
      "pois": 872,
      "Ã¡s": 873,
      "Ġ19": 874,
      "Ã¡ria": 875,
      "amos": 876,
      "gum": 877,
      "Ġafirmou": 878,
      "ĠapÃ³s": 879,
      "ulg": 880,
      "Ġreceb": 881,
      "Ġsegundo": 882,
      "quer": 883,
      "Ġrespo": 884,
      "vi": 885,
      "ismo": 886,
      "ĠEs": 887,
      "Ġca": 888,
      "19": 889,
      "vol": 890,
      "ero": 891,
      "rat": 892,
      "Ã§os": 893,
      "hec": 894,
      "Ġimp": 895,
      "Ġcap": 896,
      "ord": 897,
      "Ġid": 898,
      "Ġvai": 899,
      "lt": 900,
      "ĠW": 901,
      "ital": 902,
      "urante": 903,
      "Ġpesqu": 904,
      "rem": 905,
      "uc": 906,
      "ular": 907,
      "und": 908,
      "Ġporque": 909,
      "ublic": 910,
      "indo": 911,
      "Ġho": 912,
      "enh": 913,
      "Ã©c": 914,
      "Ãªm": 915,
      "ĠmÃ©d": 916,
      "Ã³r": 917,
      "ĠsÃ³": 918,
      "ÃŃlia": 919,
      "acional": 920,
      "ient": 921,
      "air": 922,
      "Ġlev": 923,
      "Ġcheg": 924,
      "Ġconta": 925,
      "Ġaut": 926,
      "erg": 927,
      "Ġseus": 928,
      "Ġaqu": 929,
      "Ġfam": 930,
      "ĠestÃ£o": 931,
      "ranÃ§a": 932,
      "feira": 933,
      "ĠMinist": 934,
      "Ġvol": 935,
      "ĠÃºlt": 936,
      "Ġcol": 937,
      "Ġespec": 938,
      "min": 939,
      "rov": 940,
      "Ġ6": 941,
      "Ġfic": 942,
      "ef": 943,
      "Ġdois": 944,
      "Ġintern": 945,
      "ĠRep": 946,
      "Ġecon": 947,
      "Ġdisc": 948,
      "nst": 949,
      "ante": 950,
      "Ġhav": 951,
      "Ġcrim": 952,
      "este": 953,
      "lob": 954,
      "enda": 955,
      "Ġparte": 956,
      "Ġoutros": 957,
      "Ġfazer": 958,
      "egundo": 959,
      "unic": 960,
      "ilidade": 961,
      "Ġpop": 962,
      "Ġaum": 963,
      "esse": 964,
      "Ġant": 965,
      "vid": 966,
      "Ġcond": 967,
      "Ġgru": 968,
      "tura": 969,
      "per": 970,
      "Ġempresa": 971,
      "ite": 972,
      "Ã¡vel": 973,
      "ĠAr": 974,
      "imentos": 975,
      "Ġdem": 976,
      "ĠmilhÃµes": 977,
      "Ġir": 978,
      "enta": 979,
      "ĠMinistÃ©rio": 980,
      "dos": 981,
      "Ġprof": 982,
      "ĠFederal": 983,
      "Ġesse": 984,
      "Ġloc": 985,
      "Ġafirma": 986,
      "Ġ7": 987,
      "gra": 988,
      "Ġinst": 989,
      "Ġsub": 990,
      "ĠAs": 991,
      "Ġmar": 992,
      "ncias": 993,
      "Ġexpl": 994,
      "Ġministro": 995,
      "iar": 996,
      "Ġmost": 997,
      "Ġforma": 998,
      "Ġinvestig": 999,
      "inu": 1000,
      "Ġun": 1001,
      "cia": 1002,
      "sos": 1003,
      "Ġ'": 1004,
      "ca": 1005,
      "Ġprinc": 1006,
      "Ġelei": 1007,
      "ast": 1008,
      "imo": 1009,
      "ndem": 1010,
      "ĠCo": 1011,
      "ĠLula": 1012,
      "Ġdurante": 1013,
      "Ġdepois": 1014,
      "ĠK": 1015,
      "Ġma": 1016,
      "ordo": 1017,
      "rias": 1018,
      "20": 1019,
      "Ã¢m": 1020,
      "inas": 1021,
      "ĠCov": 1022,
      "ÃŃcio": 1023,
      "emos": 1024,
      "ub": 1025,
      "Ġessa": 1026,
      "ino": 1027,
      "sas": 1028,
      "Ġapenas": 1029,
      "elh": 1030,
      "ug": 1031,
      "Ã©r": 1032,
      "ocÃª": 1033,
      "cio": 1034,
      "ano": 1035,
      "tes": 1036,
      "Ġquest": 1037,
      "Ġcome": 1038,
      "Ã³rio": 1039,
      "idera": 1040,
      "embro": 1041,
      "erv": 1042,
      "ĠMar": 1043,
      "Ġ2021": 1044,
      "ulaÃ§Ã£o": 1045,
      "Ġpartic": 1046,
      "ive": 1047,
      "ÃŃn": 1048,
      "ĠÃłs": 1049,
      "Ġins": 1050,
      "Ġdesc": 1051,
      "Ġmenos": 1052,
      "ĠNo": 1053,
      "Ġrep": 1054,
      "Ġhom": 1055,
      "uso": 1056,
      "ĠNÃ£o": 1057,
      "Ġonde": 1058,
      "red": 1059,
      "Ġacordo": 1060,
      "Ġcria": 1061,
      "ĠRio": 1062,
      "ne": 1063,
      "Ġtodos": 1064,
      "Ġmeio": 1065,
      "ass": 1066,
      "Ġseja": 1067,
      "Ġapres": 1068,
      "Ġtrabalh": 1069,
      "Ġestava": 1070,
      "ena": 1071,
      "ĠCar": 1072,
      "les": 1073,
      "elo": 1074,
      "ivos": 1075,
      "dade": 1076,
      "Ġcham": 1077,
      "Ġencont": 1078,
      "oria": 1079,
      "tamento": 1080,
      "esa": 1081,
      "ĠEle": 1082,
      "Ġdeput": 1083,
      "antes": 1084,
      "Ġapo": 1085,
      "rado": 1086,
      "Ã³ria": 1087,
      "za": 1088,
      "Ġeles": 1089,
      "ivers": 1090,
      "No": 1091,
      "ine": 1092,
      "ela": 1093,
      "Ã´m": 1094,
      "Ġpandem": 1095,
      "ĠJair": 1096,
      "Ġdeix": 1097,
      "Ġgente": 1098,
      "ĠSa": 1099,
      "Ġpublic": 1100,
      "pa": 1101,
      "Ãºm": 1102,
      "ect": 1103,
      "Ġ2020": 1104,
      "Ġro": 1105,
      "Ġsuas": 1106,
      "Ġocor": 1107,
      "ĠÃī": 1108,
      "Ġ[": 1109,
      "Ġprincip": 1110,
      "etro": 1111,
      "ong": 1112,
      "Ġdu": 1113,
      "imos": 1114,
      "iliz": 1115,
      "des": 1116,
      "Ġalgum": 1117,
      "ĠvÃŃ": 1118,
      "ĠQu": 1119,
      "usti": 1120,
      "Ġdesde": 1121,
      "Ġescol": 1122,
      "Os": 1123,
      "ulher": 1124,
      "Ġrelat": 1125,
      "lus": 1126,
      "Ġext": 1127,
      "ustiÃ§a": 1128,
      "Ġsab": 1129,
      "Ġcomb": 1130,
      "ate": 1131,
      "ĠPol": 1132,
      "gora": 1133,
      "Ġmom": 1134,
      "Ġ8": 1135,
      "ĠCovid": 1136,
      "Ġvo": 1137,
      "Ġequ": 1138,
      "Ġ/": 1139,
      "Ġtempo": 1140,
      "anha": 1141,
      "ĠMas": 1142,
      "ew": 1143,
      "Ġprev": 1144,
      "ĠpolÃŃtica": 1145,
      "ĠPor": 1146,
      "Ġautor": 1147,
      "Ġmud": 1148,
      "Ġdias": 1149,
      "cional": 1150,
      "eita": 1151,
      "Ġquem": 1152,
      "ret": 1153,
      "posta": 1154,
      "isc": 1155,
      "Ġespecial": 1156,
      "ĠprÃ³p": 1157,
      "Ġpont": 1158,
      "mos": 1159,
      "Ġpandemia": 1160,
      "ise": 1161,
      "Ġprocesso": 1162,
      "Ġhoje": 1163,
      "iente": 1164,
      "Ġdisp": 1165,
      "Ġacont": 1166,
      "Ġdados": 1167,
      "uma": 1168,
      "Ġquer": 1169,
      "Ġsol": 1170,
      "rig": 1171,
      "duz": 1172,
      "ionais": 1173,
      "Ġsal": 1174,
      "empl": 1175,
      "uta": 1176,
      "enÃ§Ã£o": 1177,
      "iol": 1178,
      "Ġtrabalho": 1179,
      "pe": 1180,
      "Ġpag": 1181,
      "Ġregist": 1182,
      "issÃ£o": 1183,
      "na": 1184,
      "Ġtinha": 1185,
      "Ġsido": 1186,
      "ly": 1187,
      "iss": 1188,
      "leg": 1189,
      "Ġhist": 1190,
      "Ġparticip": 1191,
      "Ġso": 1192,
      "Ġmundo": 1193,
      "resc": 1194,
      "Ġacontec": 1195,
      "Ġleg": 1196,
      "Ġthat": 1197,
      "ĠOs": 1198,
      "ĠtrÃªs": 1199,
      "Ġconv": 1200,
      "ĠCh": 1201,
      "Ġconsegu": 1202,
      "gan": 1203,
      "ĠnÃºm": 1204,
      "az": 1205,
      "ĠGlob": 1206,
      "ÃŃveis": 1207,
      "Ġfre": 1208,
      "port": 1209,
      "tr": 1210,
      "Ġantes": 1211,
      "roc": 1212,
      "Ġdoc": 1213,
      "igo": 1214,
      "ĠIn": 1215,
      "Ġrepres": 1216,
      "Ġpolic": 1217,
      "iÃ§Ãµes": 1218,
      "ribun": 1219,
      "ĠSaÃºde": 1220,
      "Ġbil": 1221,
      "minist": 1222,
      "ses": 1223,
      "arÃ¡": 1224,
      "Ġdesta": 1225,
      "Ġlocal": 1226,
      "Ġ9": 1227,
      "Ġsociais": 1228,
      "erra": 1229,
      "agem": 1230,
      "ach": 1231,
      "Com": 1232,
      "Ġexempl": 1233,
      "Na": 1234,
      "ign": 1235,
      "Ġeleito": 1236,
      "Ġnot": 1237,
      "gÃªncia": 1238,
      "Ġgrupo": 1239,
      "Es": 1240,
      "Ġmulher": 1241,
      "amentos": 1242,
      "ĠtÃªm": 1243,
      "Ãªncias": 1244,
      "ÃŃg": 1245,
      "igu": 1246,
      "ĠvocÃª": 1247,
      "ecess": 1248,
      "Ġmomento": 1249,
      "Ġpra": 1250,
      "tu": 1251,
      "Ġmerc": 1252,
      "Ġon": 1253,
      "roduÃ§Ã£o": 1254,
      "inho": 1255,
      "Ġinstitu": 1256,
      "jeto": 1257,
      "Ġtodo": 1258,
      "vam": 1259,
      "As": 1260,
      "Ġalgu": 1261,
      "Ġpou": 1262,
      "erta": 1263,
      "enÃ§a": 1264,
      "ĠÃ¡re": 1265,
      "Ġrespons": 1266,
      "Ġprobl": 1267,
      "ĠJustiÃ§a": 1268,
      "ardo": 1269,
      "anos": 1270,
      "nstitu": 1271,
      "Ġsitu": 1272,
      "Ġfin": 1273,
      "Ġhavia": 1274,
      "Ġbem": 1275,
      "rom": 1276,
      "Ġamb": 1277,
      "ĠGlobo": 1278,
      "Ġsendo": 1279,
      "Ġperm": 1280,
      "ĠAm": 1281,
      "volv": 1282,
      "ribu": 1283,
      "ĠPara": 1284,
      "lam": 1285,
      "ĠNacional": 1286,
      "Ġprecis": 1287,
      "ĠNa": 1288,
      "ranc": 1289,
      "ivas": 1290,
      "Ġimporta": 1291,
      "mas": 1292,
      "uncion": 1293,
      "Ġnesta": 1294,
      "Ġconhec": 1295,
      "Ġuso": 1296,
      "ribunal": 1297,
      "ĠGu": 1298,
      "Ġvia": 1299,
      "Ġcand": 1300,
      "Ġoutro": 1301,
      "vo": 1302,
      "Ġ10": 1303,
      "lic": 1304,
      "Ġteve": 1305,
      "Ġdocum": 1306,
      "raÃ§Ã£o": 1307,
      "Ġsex": 1308,
      "Ġprimeiro": 1309,
      "ĠEu": 1310,
      "Ġtom": 1311,
      "odo": 1312,
      "Ġnecess": 1313,
      "rim": 1314,
      "Ġcent": 1315,
      "elho": 1316,
      "oca": 1317,
      "ied": 1318,
      "ĠpopulaÃ§Ã£o": 1319,
      "ĠsaÃºde": 1320,
      "Ġsist": 1321,
      "Ġmeses": 1322,
      "Ġaj": 1323,
      "ĠrelaÃ§Ã£o": 1324,
      "erto": 1325,
      "Ġoutras": 1326,
      "ch": 1327,
      "Ġ2022": 1328,
      "ĠDe": 1329,
      "art": 1330,
      "Ġrealiz": 1331,
      "ĠEx": 1332,
      "ĠdecisÃ£o": 1333,
      "Ġcaus": 1334,
      "rito": 1335,
      "Ġvalor": 1336,
      "aneiro": 1337,
      "Ġpesquis": 1338,
      "ato": 1339,
      "Ġeconom": 1340,
      "Ġdifer": 1341,
      "Ġduas": 1342,
      "bras": 1343,
      "entou": 1344,
      "Ġpelos": 1345,
      "Ġadv": 1346,
      "Ġaprov": 1347,
      "ice": 1348,
      "ĠentÃ£o": 1349,
      "das": 1350,
      "Ã¡l": 1351,
      "Ã¢ncia": 1352,
      "Ġmat": 1353,
      "Ġprov": 1354,
      "ava": 1355,
      "iÃªncia": 1356,
      "Ġcontinu": 1357,
      "Ġsim": 1358,
      "ex": 1359,
      "Ġjorn": 1360,
      "ĠPetro": 1361,
      "Ġvida": 1362,
      "olha": 1363,
      "Ġqualquer": 1364,
      "Ġsent": 1365,
      "ĠregiÃ£o": 1366,
      "Ġdeve": 1367,
      "Ġvoto": 1368,
      "Segundo": 1369,
      "Ġconst": 1370,
      "iado": 1371,
      "jet": 1372,
      "Ġbus": 1373,
      "Ġcada": 1374,
      "Ġsus": 1375,
      "Ġlei": 1376,
      "Ġpassado": 1377,
      "Ġ200": 1378,
      "Ġatual": 1379,
      "ĠserÃ¡": 1380,
      "Ġfuncion": 1381,
      "iou": 1382,
      "laÃ§Ã£o": 1383,
      "Ġexemplo": 1384,
      "ursos": 1385,
      "'s": 1386,
      "duc": 1387,
      "Ġcasa": 1388,
      "Ã¢n": 1389,
      "Ġfez": 1390,
      "Ġdev": 1391,
      "Ġnota": 1392,
      "Ġredes": 1393,
      "Ġgrande": 1394,
      "Ġgas": 1395,
      "Ġconsidera": 1396,
      "ril": 1397,
      "itas": 1398,
      "uiz": 1399,
      "erca": 1400,
      "Ġexc": 1401,
      "olog": 1402,
      "enado": 1403,
      "mar": 1404,
      "unto": 1405,
      "ativa": 1406,
      "Para": 1407,
      "maz": 1408,
      "gens": 1409,
      "arec": 1410,
      "Ġve": 1411,
      "Ġnome": 1412,
      "orte": 1413,
      "ivil": 1414,
      "ĠvÃŃde": 1415,
      "Ãºblica": 1416,
      "Ġagora": 1417,
      "Ġpodem": 1418,
      "Ġeste": 1419,
      "eiras": 1420,
      "lex": 1421,
      "Ġvis": 1422,
      "Ġart": 1423,
      "ĠcomeÃ§": 1424,
      "Ġatu": 1425,
      "Ġdefend": 1426,
      "Ġmercado": 1427,
      "Ġlib": 1428,
      "Ġ15": 1429,
      "ÃŃp": 1430,
      "Ġit": 1431,
      "urso": 1432,
      "Ġprimeira": 1433,
      "Ãī": 1434,
      "..": 1435,
      "inaÃ§Ã£o": 1436,
      "ĠSu": 1437,
      "equ": 1438,
      "Ġti": 1439,
      "Ġcrian": 1440,
      "ĠprÃ³x": 1441,
      "quanto": 1442,
      "Ġaval": 1443,
      "ĠPolÃŃcia": 1444,
      "Ã¡tica": 1445,
      "Ã¡rias": 1446,
      "Ġresult": 1447,
      "Ġmora": 1448,
      "Ġseria": 1449,
      "Ġmanif": 1450,
      "Ġdivulg": 1451,
      "Ġdecl": 1452,
      "Ġfinal": 1453,
      "ard": 1454,
      "Ġten": 1455,
      "Ġdeputado": 1456,
      "atos": 1457,
      "Ġsusp": 1458,
      "ĠReproduÃ§Ã£o": 1459,
      "dut": 1460,
      "Ã¢mara": 1461,
      "ĠSant": 1462,
      "Ġexist": 1463,
      "ĠnÃºmero": 1464,
      "taÃ§Ã£o": 1465,
      "inheiro": 1466,
      "rada": 1467,
      "Ġfim": 1468,
      "Ġden": 1469,
      "Ġcan": 1470,
      "Ġle": 1471,
      "bora": 1472,
      "Ġassim": 1473,
      "ĠSil": 1474,
      "Ġfederal": 1475,
      "ĠsituaÃ§Ã£o": 1476,
      "encial": 1477,
      "Ġef": 1478,
      "PI": 1479,
      "Ġsemana": 1480,
      "hos": 1481,
      "ax": 1482,
      "omp": 1483,
      "Ã³g": 1484,
      "atura": 1485,
      "gua": 1486,
      "maÃ§Ã£o": 1487,
      "TF": 1488,
      "Ġequip": 1489,
      "Ġata": 1490,
      "ĠpÃºblico": 1491,
      "Ġmant": 1492,
      "tamente": 1493,
      "Ġdist": 1494,
      "Ġau": 1495,
      "Ġsegunda": 1496,
      "Ġapont": 1497,
      "rit": 1498,
      "Ġempresas": 1499,
      "Ġcasos": 1500,
      "Ġprojeto": 1501,
      "Ġinforma": 1502,
      "Ġbe": 1503,
      "PS": 1504,
      "are": 1505,
      "Ġmov": 1506,
      "almente": 1507,
      "ĠseguranÃ§a": 1508,
      "ĠEstado": 1509,
      "Ġsocial": 1510,
      "Ġsom": 1511,
      "Ġestud": 1512,
      "ire": 1513,
      "Ġresp": 1514,
      "Ġestado": 1515,
      "ĠEl": 1516,
      "DB": 1517,
      "Ġdent": 1518,
      "Ġnem": 1519,
      "Ġgu": 1520,
      "Ġtorn": 1521,
      "Ġreporta": 1522,
      "nder": 1523,
      "iedade": 1524,
      "ele": 1525,
      "Ġcidade": 1526,
      "SP": 1527,
      "ĠpaÃŃses": 1528,
      "Ġaumento": 1529,
      "Ġmod": 1530,
      "iram": 1531,
      "reg": 1532,
      "ĠCÃ¢mara": 1533,
      "Ġmand": 1534,
      "ang": 1535,
      "Ġhou": 1536,
      "Ġdisso": 1537,
      "isco": 1538,
      "ĠalÃ©m": 1539,
      "ques": 1540,
      "ith": 1541,
      "sou": 1542,
      "ĠZ": 1543,
      "Ã³d": 1544,
      "Ġprop": 1545,
      "Ġsistema": 1546,
      "rut": 1547,
      "Ġservi": 1548,
      "Ġjornal": 1549,
      "NÃ£o": 1550,
      "Ġempre": 1551,
      "Ġnovo": 1552,
      "fre": 1553,
      "ric": 1554,
      "th": 1555,
      "Ġrefor": 1556,
      "Ġsec": 1557,
      "ews": 1558,
      "Ġmelh": 1559,
      "Ġentrev": 1560,
      "Ġ11": 1561,
      "oro": 1562,
      "Ġtudo": 1563,
      "Âº": 1564,
      "Ġsen": 1565,
      "Ġcerca": 1566,
      "ĠIs": 1567,
      "ĠpossÃŃvel": 1568,
      "Ġ12": 1569,
      "ĠpreÃ§os": 1570,
      "Ġmunic": 1571,
      "Ã³l": 1572,
      "Ġindic": 1573,
      "Ġvezes": 1574,
      "Ġru": 1575,
      "Ġcob": 1576,
      "ĠbilhÃµes": 1577,
      "ĠAn": 1578,
      "anÃ§": 1579,
      "eric": 1580,
      "Ġdez": 1581,
      "ĠfamÃŃlia": 1582,
      "ump": 1583,
      "BC": 1584,
      "ea": 1585,
      "Ġviol": 1586,
      "Ġcresc": 1587,
      "ment": 1588,
      "Ġorgan": 1589,
      "Ġhum": 1590,
      "Ġpartido": 1591,
      "Ġaplic": 1592,
      "Ġident": 1593,
      "De": 1594,
      "ĠJo": 1595,
      "Ġbase": 1596,
      "imas": 1597,
      "Ġbrasileiro": 1598,
      "Ġalguns": 1599,
      "eia": 1600,
      "Ġalta": 1601,
      "Al": 1602,
      "ĠPod": 1603,
      "Ġinic": 1604,
      "ĠmÃ£": 1605,
      "Ġnenh": 1606,
      "Ġreun": 1607,
      "Ġprodut": 1608,
      "pec": 1609,
      "Ġmin": 1610,
      "idÃªncia": 1611,
      "Ġpesquisa": 1612,
      "ĠPro": 1613,
      "Ġfinanc": 1614,
      "ĠPetrobras": 1615,
      "Ġconsum": 1616,
      "Ġ2019": 1617,
      "Ap": 1618,
      "Ġapresent": 1619,
      "Ġdinheiro": 1620,
      "ĠRe": 1621,
      "Ġpo": 1622,
      "Ġchegou": 1623,
      "Ġgara": 1624,
      "Ġpriv": 1625,
      "Ġaqui": 1626,
      "Ġdentro": 1627,
      "iversidade": 1628,
      "Ġcontro": 1629,
      "Ġinclu": 1630,
      "uais": 1631,
      "Ġtotal": 1632,
      "Ġ2018": 1633,
      "ĠinÃŃcio": 1634,
      "Ġret": 1635,
      "ies": 1636,
      "jo": 1637,
      "osp": 1638,
      "enÃ¡rio": 1639,
      "ientes": 1640,
      "Ġdeter": 1641,
      "ĠindÃŃg": 1642,
      "ĠAgÃªncia": 1643,
      "Ġdemoc": 1644,
      "iaÃ§Ã£o": 1645,
      "erar": 1646,
      "ill": 1647,
      "emente": 1648,
      "dic": 1649,
      "Ġcamp": 1650,
      "Ġlado": 1651,
      "Ġsempre": 1652,
      "Ġtiv": 1653,
      "Ġwith": 1654,
      "Ġlim": 1655,
      "atro": 1656,
      "Ġvacina": 1657,
      "ĠperÃŃ": 1658,
      "iro": 1659,
      "ulos": 1660,
      "Ġinteg": 1661,
      "ech": 1662,
      "aixo": 1663,
      "oi": 1664,
      "Ġpartir": 1665,
      "los": 1666,
      "Ġpac": 1667,
      "Ġliv": 1668,
      "âĢĶ": 1669,
      "ĠAmaz": 1670,
      "Ã©s": 1671,
      "resso": 1672,
      "Ġacab": 1673,
      "Ã´nia": 1674,
      "Ġcri": 1675,
      "Ġminha": 1676,
      "anÃ§a": 1677,
      "Ġfoto": 1678,
      "Ġadvog": 1679,
      "izar": 1680,
      "Ġlo": 1681,
      "udic": 1682,
      "Ġbrasileiros": 1683,
      "Ġmarc": 1684,
      "Ġpet": 1685,
      "Ġperc": 1686,
      "Ġpal": 1687,
      "Ġfeito": 1688,
      "presidente": 1689,
      "Ġil": 1690,
      "Ġur": 1691,
      "Ġfund": 1692,
      "Ġpedido": 1693,
      "ĠSTF": 1694,
      "Ġate": 1695,
      "Ġcoloc": 1696,
      "ĠTribunal": 1697,
      "ultura": 1698,
      "ĠaÃ§Ã£o": 1699,
      "Ġativ": 1700,
      "Ġentend": 1701,
      "zo": 1702,
      "%.": 1703,
      "ke": 1704,
      "Ã©dito": 1705,
      "Ġset": 1706,
      "ĠÃ³r": 1707,
      "ĠvÃŃt": 1708,
      "Ġprote": 1709,
      "Ġ30": 1710,
      "Ġrela": 1711,
      "Ġvend": 1712,
      "essa": 1713,
      "Ã¡veis": 1714,
      "ton": 1715,
      "ibilidade": 1716,
      "Ġsuper": 1717,
      "grama": 1718,
      "eitos": 1719,
      "ĠmÃªs": 1720,
      "Ġy": 1721,
      "Ġref": 1722,
      "Ġdest": 1723,
      "inar": 1724,
      "Ġtent": 1725,
      "ecut": 1726,
      "reu": 1727,
      "ĠinformaÃ§Ãµes": 1728,
      "Ġcomun": 1729,
      "iados": 1730,
      "ona": 1731,
      "Ġquase": 1732,
      "unca": 1733,
      "Ġconfir": 1734,
      "ere": 1735,
      "ĠperÃŃodo": 1736,
      "iano": 1737,
      "Ġoutra": 1738,
      "vor": 1739,
      "Ġdele": 1740,
      "Ġha": 1741,
      "Ãºs": 1742,
      "ĠeleiÃ§Ãµes": 1743,
      "Ã©l": 1744,
      "Ġcu": 1745,
      "Ġdeste": 1746,
      "Ġdever": 1747,
      "ĠÃ¡rea": 1748,
      "SE": 1749,
      "Ġtex": 1750,
      "Ġtodas": 1751,
      "Ġtur": 1752,
      "Ġrecursos": 1753,
      "emas": 1754,
      "ĠMarc": 1755,
      "Ġanal": 1756,
      "uÃŃ": 1757,
      "Ġenquanto": 1758,
      "bel": 1759,
      "Ġfac": 1760,
      "Ġtipo": 1761,
      "Ġfato": 1762,
      "Ġeleitoral": 1763,
      "Ġapoio": 1764,
      "Ġcapital": 1765,
      "essor": 1766,
      "ĠBar": 1767,
      "Ġpassa": 1768,
      "Ġcrime": 1769,
      "Ġquar": 1770,
      "Ġpessoa": 1771,
      "Ġrepresent": 1772,
      "ĠvÃŃdeo": 1773,
      "ĠprÃ©": 1774,
      "Ġacesso": 1775,
      "ovo": 1776,
      "esar": 1777,
      "ĠÃ³rg": 1778,
      "tado": 1779,
      "ĠSe": 1780,
      "ĠCong": 1781,
      "Ġcal": 1782,
      "Ġform": 1783,
      "ativo": 1784,
      "ĠeconÃ´m": 1785,
      "ĠPres": 1786,
      "Ġcin": 1787,
      "Ġut": 1788,
      "rer": 1789,
      "Ġ18": 1790,
      "ĠpreÃ§o": 1791,
      "DE": 1792,
      "erais": 1793,
      "Ġacus": 1794,
      "Ġgarant": 1795,
      "Ġcus": 1796,
      "rasÃŃlia": 1797,
      "Ġfavor": 1798,
      "osse": 1799,
      "ĠY": 1800,
      "gram": 1801,
      "ĠCent": 1802,
      "Ġgen": 1803,
      "ĠSul": 1804,
      "Ġreportagem": 1805,
      "Ġmanifesta": 1806,
      "ge": 1807,
      "Ġmaio": 1808,
      "Ġdivers": 1809,
      "Ġben": 1810,
      "itares": 1811,
      "Ġbrasileira": 1812,
      "Ġcomple": 1813,
      "ologia": 1814,
      "inos": 1815,
      "ĠaÃ§Ãµes": 1816,
      "ĠRepÃºblica": 1817,
      "af": 1818,
      "ament": 1819,
      "ĠSegundo": 1820,
      "Ġopera": 1821,
      "Ġpref": 1822,
      "Ġparc": 1823,
      "ĠVal": 1824,
      "Ġbo": 1825,
      "Ġteria": 1826,
      "unho": 1827,
      "erior": 1828,
      "Ġsur": 1829,
      "Ġdireito": 1830,
      "Ġlig": 1831,
      "ĠFor": 1832,
      "Ġdesen": 1833,
      "ity": 1834,
      "ĠLeg": 1835,
      "premo": 1836,
      "Ġofic": 1837,
      "ĠCPI": 1838,
      "Ġrefer": 1839,
      "Ġrenda": 1840,
      "ĠnÃ³s": 1841,
      "ĠBBC": 1842,
      "Ġrisco": 1843,
      "Ġmostra": 1844,
      "Ġcrit": 1845,
      "uÃ§Ã£o": 1846,
      "Ġquatro": 1847,
      "Ġfu": 1848,
      "ingu": 1849,
      "hÃ£o": 1850,
      "Ġvem": 1851,
      "Ġtexto": 1852,
      "ĠInt": 1853,
      "Ġpouco": 1854,
      "Ġhouve": 1855,
      "Ġparec": 1856,
      "ĠpÃºblica": 1857,
      "ecer": 1858,
      "ie": 1859,
      "ĠEstados": 1860,
      "ĠCongresso": 1861,
      "asse": 1862,
      "Ġexplica": 1863,
      "Ġnada": 1864,
      "Ġmeu": 1865,
      "Ġ13": 1866,
      "Ġimpac": 1867,
      "ĠproduÃ§Ã£o": 1868,
      "UA": 1869,
      "Ġcab": 1870,
      "Ã©cn": 1871,
      "nto": 1872,
      "ĠCons": 1873,
      "Por": 1874,
      "Ġbar": 1875,
      "dor": 1876,
      "rav": 1877,
      "ĠinflaÃ§Ã£o": 1878,
      "Ġprom": 1879,
      "ĠlÃ¡": 1880,
      "Ġamea": 1881,
      "rus": 1882,
      "Ġdefesa": 1883,
      "sia": 1884,
      "ÃŃder": 1885,
      "ron": 1886,
      "ay": 1887,
      "para": 1888,
      "Ġfra": 1889,
      "Ġjov": 1890,
      "poca": 1891,
      "ĠSilva": 1892,
      "Ġentanto": 1893,
      "ifica": 1894,
      "Ġficou": 1895,
      "Ġdetermin": 1896,
      "one": 1897,
      "ĠmarÃ§o": 1898,
      "Ġcombust": 1899,
      "Ġcer": 1900,
      "Ġcole": 1901,
      "idato": 1902,
      "Ġare": 1903,
      "Ġacomp": 1904,
      "Ã©g": 1905,
      "ĠPS": 1906,
      "Ġnova": 1907,
      "ÃŃst": 1908,
      "ation": 1909,
      "las": 1910,
      "ions": 1911,
      "Ġrev": 1912,
      "aixa": 1913,
      "nstituto": 1914,
      "Ġdar": 1915,
      "ducaÃ§Ã£o": 1916,
      "PT": 1917,
      "Ġ0": 1918,
      "Ġsign": 1919,
      "ĠcrianÃ§as": 1920,
      "izado": 1921,
      "igos": 1922,
      "acion": 1923,
      "Ġfora": 1924,
      "Ġfisc": 1925,
      "ich": 1926,
      "Ġfrente": 1927,
      "Ã¡b": 1928,
      "Ġpelas": 1929,
      "ĠÃ©poca": 1930,
      "Ġdecid": 1931,
      "ĠSim": 1932,
      "com": 1933,
      "Ġfer": 1934,
      "Ġmilitares": 1935,
      "ĠÃŃ": 1936,
      "ĠEnt": 1937,
      "Ġmilitar": 1938,
      "vio": 1939,
      "Ġnacional": 1940,
      "ĠPT": 1941,
      "Ġlon": 1942,
      "ĠÃºltimos": 1943,
      "ĠquestÃ£o": 1944,
      "ĠPÃºbl": 1945,
      "ĠBra": 1946,
      "Ġer": 1947,
      "Ġalgumas": 1948,
      "tiva": 1949,
      "Ġmulheres": 1950,
      "Ġfica": 1951,
      "ĠUniÃ£o": 1952,
      "ht": 1953,
      "ĠTra": 1954,
      "icamente": 1955,
      "cr": 1956,
      "Ġtel": 1957,
      "Ġpoliciais": 1958,
      "Ġassin": 1959,
      "Ġpresid": 1960,
      "Ã£os": 1961,
      "Ġpoderia": 1962,
      "uro": 1963,
      "Ġconstru": 1964,
      "Ġcandid": 1965,
      "ilo": 1966,
      "Ġproblema": 1967,
      "Ġprecisa": 1968,
      "reve": 1969,
      "Ġalt": 1970,
      "Ġder": 1971,
      "ba": 1972,
      "iment": 1973,
      "Ġmelhor": 1974,
      "ĠIsso": 1975,
      "Ġfalta": 1976,
      "Ġcompra": 1977,
      "Ġquestion": 1978,
      "orm": 1979,
      "Ġneste": 1980,
      "anal": 1981,
      "ĠPl": 1982,
      "Ġnunca": 1983,
      "rutura": 1984,
      "ĠSenado": 1985,
      "Ġpassou": 1986,
      "ĠAd": 1987,
      "ĠtÃ©cn": 1988,
      "Ġwh": 1989,
      "fe": 1990,
      "ergia": 1991,
      "Ġprograma": 1992,
      "duardo": 1993,
      "Ġnum": 1994,
      "izada": 1995,
      "OL": 1996,
      "Ġparlam": 1997,
      "sem": 1998,
      "Ġestar": 1999,
      "esc": 2000,
      "pera": 2001,
      "Ġprocura": 2002,
      "osto": 2003,
      "Ġcampanha": 2004,
      "ĠmunicÃŃp": 2005,
      "Ġdeb": 2006,
      "Ġby": 2007,
      "Ġexp": 2008,
      "Ġimportante": 2009,
      "21": 2010,
      "Ġquanto": 2011,
      "Ġabril": 2012,
      "Ãªn": 2013,
      "Ġ14": 2014,
      "ome": 2015,
      "Ġesses": 2016,
      "inta": 2017,
      "Ġidentific": 2018,
      "dores": 2019,
      "ĠÃºn": 2020,
      "ĠPÃºblico": 2021,
      "Ġsetor": 2022,
      "leo": 2023,
      "Ġsho": 2024,
      "Ã¢nia": 2025,
      "ocup": 2026,
      "Ã¡cio": 2027,
      "ĠAnd": 2028,
      "ospital": 2029,
      "Ġinclus": 2030,
      "ĠUnidos": 2031,
      "Ġjunho": 2032,
      "Ġtax": 2033,
      "Ġbol": 2034,
      "Ġdeclara": 2035,
      "ĠhistÃ³ria": 2036,
      "Ġcara": 2037,
      "Ġwas": 2038,
      "ĠmÃ©dia": 2039,
      "aj": 2040,
      "ĠCor": 2041,
      "ĠEUA": 2042,
      "rup": 2043,
      "has": 2044,
      "adora": 2045,
      "rop": 2046,
      "ress": 2047,
      "Ġmesma": 2048,
      "ĠlÃŃder": 2049,
      "Ġacred": 2050,
      "estÃ£o": 2051,
      "ĠpolÃŃcia": 2052,
      "ure": 2053,
      "Ġvolta": 2054,
      "Mas": 2055,
      "ell": 2056,
      "anas": 2057,
      "Ġenvi": 2058,
      "ger": 2059,
      "agens": 2060,
      "Ġbanc": 2061,
      "Ġadminist": 2062,
      "Ġlug": 2063,
      "iÃµes": 2064,
      "tante": 2065,
      "ensÃ£o": 2066,
      "ĠEla": 2067,
      "uda": 2068,
      "Ġcrise": 2069,
      "ĠpolÃŃtico": 2070,
      "posiÃ§Ã£o": 2071,
      "iel": 2072,
      "ID": 2073,
      "ĠprÃ³prio": 2074,
      "Ġgrav": 2075,
      "ĠindÃŃgenas": 2076,
      "press": 2077,
      "Ġcausa": 2078,
      "Ġmedidas": 2079,
      "ĠCam": 2080,
      "Ġmorte": 2081,
      "Ġhe": 2082,
      "socia": 2083,
      "Ġganh": 2084,
      "ane": 2085,
      "ĠRec": 2086,
      "Ġbas": 2087,
      "Ġeconomia": 2088,
      "Ġestudo": 2089,
      "jam": 2090,
      "%,": 2091,
      "Ġdif": 2092,
      "Ġado": 2093,
      "volvimento": 2094,
      "uld": 2095,
      "ĠUm": 2096,
      "Ele": 2097,
      "Ġ16": 2098,
      "Ġpob": 2099,
      "ata": 2100,
      "rÃ³": 2101,
      "Ġmo": 2102,
      "ulho": 2103,
      "Ġsociedade": 2104,
      "Ġdocumento": 2105,
      "ok": 2106,
      "Ġinformou": 2107,
      "Ġfilho": 2108,
      "Ġprocess": 2109,
      "Ġmedic": 2110,
      "ĠmÃ£e": 2111,
      "rÃ£o": 2112,
      "ĠsÃ©": 2113,
      "ĠCivil": 2114,
      "Ġimun": 2115,
      "Ġlevant": 2116,
      "Um": 2117,
      "ĠAp": 2118,
      "Ġreduz": 2119,
      "Ġk": 2120,
      "Ġating": 2121,
      "Ġutiliz": 2122,
      "ĠThe": 2123,
      "Ġouv": 2124,
      "Ġdesse": 2125,
      "rados": 2126,
      "ĠBrasÃŃlia": 2127,
      "Ġvi": 2128,
      "osta": 2129,
      "ĠAc": 2130,
      "eÃº": 2131,
      "Ġcorpo": 2132,
      "ĠEduardo": 2133,
      "ecn": 2134,
      "ĠSupremo": 2135,
      "ĠinvestigaÃ§Ã£o": 2136,
      "ĠLei": 2137,
      "Ġcinco": 2138,
      "ĠMil": 2139,
      "dem": 2140,
      "Ġmensa": 2141,
      "Ġmaioria": 2142,
      "Ġaud": 2143,
      "entemente": 2144,
      "ĠcrÃŃt": 2145,
      "Ġmedida": 2146,
      "Ġcient": 2147,
      "Ġessas": 2148,
      "ĠUS": 2149,
      "Ġmot": 2150,
      "uz": 2151,
      "gunt": 2152,
      "Ġquarta": 2153,
      "Ġobs": 2154,
      "ĠJaneiro": 2155,
      "Ġobjet": 2156,
      "eria": 2157,
      "Ġcomunic": 2158,
      "Ġeram": 2159,
      "car": 2160,
      "ĠCont": 2161,
      "Ġestavam": 2162,
      "rica": 2163,
      "Ġrevel": 2164,
      "ĠOr": 2165,
      "ĠÃ¡gua": 2166,
      "ĠChina": 2167,
      "Ġprincipais": 2168,
      "nÃ§a": 2169,
      "Ġpreocup": 2170,
      "anco": 2171,
      "gas": 2172,
      "ĠCr": 2173,
      "Ġdizer": 2174,
      "col": 2175,
      "rir": 2176,
      "Ġajud": 2177,
      "Ġviv": 2178,
      "Ġimpos": 2179,
      "Ġresultado": 2180,
      "segu": 2181,
      "ĠÃºltima": 2182,
      "ide": 2183,
      "Ġproposta": 2184,
      "ecret": 2185,
      "Ġhomem": 2186,
      "Ġtor": 2187,
      "ĠPre": 2188,
      "ĠAt": 2189,
      "tores": 2190,
      "Ġcir": 2191,
      "onhec": 2192,
      "fico": 2193,
      "Ġdeles": 2194,
      "Ġestabel": 2195,
      "ĠFolha": 2196,
      "Ġdefin": 2197,
      "iada": 2198,
      "Ġmon": 2199,
      "Ġdessa": 2200,
      "ĠTSE": 2201,
      "Ġsexta": 2202,
      "eno": 2203,
      "Ġmet": 2204,
      "Ġtoda": 2205,
      "ĠLuiz": 2206,
      "Ġtenha": 2207,
      "ĠtÃ£o": 2208,
      "Ġestados": 2209,
      "Ġol": 2210,
      "Ġexplic": 2211,
      "Ġrem": 2212,
      "ĠInstituto": 2213,
      "ĠEn": 2214,
      "Ġequipe": 2215,
      "ĠMora": 2216,
      "Ġprofiss": 2217,
      "Ġnossa": 2218,
      "Ġsecret": 2219,
      "Ġentrevista": 2220,
      "tora": 2221,
      "Ġevento": 2222,
      "Se": 2223,
      "Ġponto": 2224,
      "ĠoperaÃ§Ã£o": 2225,
      "ins": 2226,
      "Ġhave": 2227,
      "Ġcoisa": 2228,
      "Ġfalar": 2229,
      "ever": 2230,
      "ĠvacinaÃ§Ã£o": 2231,
      "Ġmuitos": 2232,
      "ĠRod": 2233,
      "Ġpla": 2234,
      "nsa": 2235,
      "ĠJos": 2236,
      "Ġfut": 2237,
      "Ġjaneiro": 2238,
      "Ġofer": 2239,
      "ĠcenÃ¡rio": 2240,
      "Ġtar": 2241,
      "ulista": 2242,
      "Ġespera": 2243,
      "Ġfech": 2244,
      "Ġquinta": 2245,
      "Ġ25": 2246,
      "Ġlongo": 2247,
      "Ġmuitas": 2248,
      "Ġfiscal": 2249,
      "ĠIma": 2250,
      "ĠPal": 2251,
      "ecimento": 2252,
      "idores": 2253,
      "Ġdemocra": 2254,
      "Ġla": 2255,
      "Ġpessoal": 2256,
      "Ġmal": 2257,
      "PL": 2258,
      "Ġestad": 2259,
      "ÃŃcias": 2260,
      "Ġgol": 2261,
      "Ġalun": 2262,
      "Ġficar": 2263,
      "val": 2264,
      "ĠCas": 2265,
      "ĠviolÃªncia": 2266,
      "ck": 2267,
      "ĠeleiÃ§Ã£o": 2268,
      "Ġespa": 2269,
      "ime": 2270,
      "ĠporÃ©m": 2271,
      "har": 2272,
      "Ã³rios": 2273,
      "olsonar": 2274,
      "Ġrecebeu": 2275,
      "Ġabaixo": 2276,
      "Ġdireitos": 2277,
      "ĠUniversidade": 2278,
      "Ġpergunt": 2279,
      "ĠprisÃ£o": 2280,
      "Ġprodutos": 2281,
      "Ġocup": 2282,
      "Ġrac": 2283,
      "Ġprofessor": 2284,
      "Ġapre": 2285,
      "abilidade": 2286,
      "Ġaparec": 2287,
      "Ġacompanh": 2288,
      "Ġjulg": 2289,
      "Ġdistribu": 2290,
      "Ġemb": 2291,
      "Ġcat": 2292,
      "Ġargum": 2293,
      "Ġdiretor": 2294,
      "Ġsetembro": 2295,
      "ĠSantos": 2296,
      "Ã©rito": 2297,
      "ĠEcon": 2298,
      "Ġproduz": 2299,
      "Ġameric": 2300,
      "Ġ17": 2301,
      "Ġrede": 2302,
      "Ġrespond": 2303,
      "ux": 2304,
      "ĠNews": 2305,
      "Ġterc": 2306,
      "Ġgrupos": 2307,
      "ĠcomeÃ§ou": 2308,
      "Ġperd": 2309,
      "Ġed": 2310,
      "ÃŃlio": 2311,
      "ulgaÃ§Ã£o": 2312,
      "edes": 2313,
      "ÃŃlias": 2314,
      "Eu": 2315,
      "eitas": 2316,
      "Ġfeita": 2317,
      "ĠAnt": 2318,
      "Ġimpre": 2319,
      "crÃ¢nia": 2320,
      "Ġobrig": 2321,
      "ndes": 2322,
      "ĠAss": 2323,
      "rie": 2324,
      "ĠanÃ¡l": 2325,
      "ĠDes": 2326,
      "omia": 2327,
      "ĠX": 2328,
      "Ġdig": 2329,
      "ertura": 2330,
      "ĠdenÃº": 2331,
      "Ġ24": 2332,
      "EC": 2333,
      "ĠvÃ£o": 2334,
      "omb": 2335,
      "Ġvacinas": 2336,
      "Ġvotos": 2337,
      "frent": 2338,
      "ĠUcrÃ¢nia": 2339,
      "Ġnenhum": 2340,
      "Ġnosso": 2341,
      "Ġcel": 2342,
      "Ġanunc": 2343,
      "ĠmÃ¡": 2344,
      "Ġdesp": 2345,
      "ĠdÃ©c": 2346,
      "ĠcombustÃŃveis": 2347,
      "ĠCarlos": 2348,
      "onav": 2349,
      "Ġtanto": 2350,
      "Ġreconhec": 2351,
      "Ġreceber": 2352,
      "rÃ©": 2353,
      "Ġtest": 2354,
      "Âª": 2355,
      "Ġcargo": 2356,
      "Ġlemb": 2357,
      "ĠGra": 2358,
      "ivulgaÃ§Ã£o": 2359,
      "Ġquais": 2360,
      "isas": 2361,
      "Ġpontos": 2362,
      "AlÃ©m": 2363,
      "Ġproced": 2364,
      "ĠserviÃ§os": 2365,
      "eir": 2366,
      "ĠpolÃŃticas": 2367,
      "ĠfamÃŃlias": 2368,
      "ĠCO": 2369,
      "Ġ100": 2370,
      "via": 2371,
      "tion": 2372,
      "Ġproblemas": 2373,
      "Ġenergia": 2374,
      "Ġjur": 2375,
      "ÃŃda": 2376,
      "itaÃ§Ã£o": 2377,
      "idad": 2378,
      "Ġtratamento": 2379,
      "ĠprÃ³pria": 2380,
      "Ġhoras": 2381,
      "ĠOl": 2382,
      "Ġliber": 2383,
      "Ġbolsonar": 2384,
      "ical": 2385,
      "olÃ³g": 2386,
      "pend": 2387,
      "Ġalgo": 2388,
      "ratÃ©g": 2389,
      "IA": 2390,
      "Ġdeleg": 2391,
      "ĠJoÃ£o": 2392,
      "Ġsig": 2393,
      "Ġvaria": 2394,
      "ĠPer": 2395,
      "Ġampl": 2396,
      "ivamente": 2397,
      "Ġfrom": 2398,
      "Ġquant": 2399,
      "Ġcontato": 2400,
      "ĠAmazÃ´nia": 2401,
      "Ġens": 2402,
      "Ġvalores": 2403,
      "Cr": 2404,
      "Ġapura": 2405,
      "Ġenfrent": 2406,
      "Ġinqu": 2407,
      "ival": 2408,
      "Ġfosse": 2409,
      "ĠresponsÃ¡vel": 2410,
      "Ġdom": 2411,
      "Ġelas": 2412,
      "ĠAlex": 2413,
      "Ġdiscurso": 2414,
      "Ã©t": 2415,
      "Ġporta": 2416,
      "Ġdose": 2417,
      "Ġideia": 2418,
      "Ġinflu": 2419,
      "Ġlugar": 2420,
      "Ġocorr": 2421,
      "Ġbusca": 2422,
      "Ġdepend": 2423,
      "Ġresol": 2424,
      "ĠTh": 2425,
      "Ġpe": 2426,
      "ind": 2427,
      "Ġ199": 2428,
      "Ġpens": 2429,
      "Ġestim": 2430,
      "Ġpermit": 2431,
      "Ġatend": 2432,
      "Ġpovo": 2433,
      "Ġorig": 2434,
      "...": 2435,
      "our": 2436,
      "Ġjog": 2437,
      "estre": 2438,
      "Ġgrandes": 2439,
      "iqu": 2440,
      "Ġesquer": 2441,
      "ĠÃ³": 2442,
      "Ġoficial": 2443,
      "ĠreduÃ§Ã£o": 2444,
      "eros": 2445,
      "Ġdific": 2446,
      "Ġadvogado": 2447,
      "Ġdet": 2448,
      "Ġexper": 2449,
      "Ġinclusive": 2450,
      "Ġrelacion": 2451,
      "Ġpat": 2452,
      "Ġsof": 2453,
      "Ġvir": 2454,
      "Ġconver": 2455,
      "Ġcapac": 2456,
      "ĠgestÃ£o": 2457,
      "Ao": 2458,
      "Ġcount": 2459,
      "out": 2460,
      "Ġjulho": 2461,
      "zil": 2462,
      "ece": 2463,
      "Ġpediu": 2464,
      "iana": 2465,
      "Ġsan": 2466,
      "Ġ50": 2467,
      "Ġhas": 2468,
      "Ġministros": 2469,
      "Ġmenor": 2470,
      "ĠComo": 2471,
      "ĠreuniÃ£o": 2472,
      "Ġnegoc": 2473,
      "Ġpolicial": 2474,
      "ĠterÃ§a": 2475,
      "Ġagosto": 2476,
      "Ġinform": 2477,
      "Ġtal": 2478,
      "Ġcump": 2479,
      "eto": 2480,
      "Ġinde": 2481,
      "Ġpois": 2482,
      "ĠsÃ©rie": 2483,
      "Ġtemos": 2484,
      "ĠRodri": 2485,
      "ater": 2486,
      "ĠconteÃº": 2487,
      "ĠSegu": 2488,
      "reira": 2489,
      "ĠSal": 2490,
      "Ġimprensa": 2491,
      "Ġcorre": 2492,
      "ĠJosÃ©": 2493,
      "Ġverdade": 2494,
      "ĠmudanÃ§a": 2495,
      "Ġtrabalha": 2496,
      "pol": 2497,
      "Ġprincipal": 2498,
      "Ġfl": 2499,
      "Ãºssia": 2500,
      "Ġnesse": 2501,
      "of": 2502,
      "Ġsaid": 2503,
      "Como": 2504,
      "Ġfiz": 2505,
      "Ġgeral": 2506,
      "Ġjust": 2507,
      "ĠlanÃ§": 2508,
      "porte": 2509,
      "Ġindiv": 2510,
      "ĠÃºltimo": 2511,
      "Ġqueda": 2512,
      "Ġambient": 2513,
      "ecutivo": 2514,
      "Ġcost": 2515,
      "ĠIns": 2516,
      "ry": 2517,
      "eles": 2518,
      "ĠpolÃŃticos": 2519,
      "Ent": 2520,
      "mes": 2521,
      "Ġsenador": 2522,
      "Ġcoord": 2523,
      "eitura": 2524,
      "avam": 2525,
      "ĠFern": 2526,
      "Ġacima": 2527,
      "forme": 2528,
      "Ġdepo": 2529,
      "rÃ¡": 2530,
      "Ġexclus": 2531,
      "ĠFl": 2532,
      "Ġmont": 2533,
      "Ġglob": 2534,
      "Ġguerra": 2535,
      "ese": 2536,
      "inguÃ©m": 2537,
      "ĠJÃ¡": 2538,
      "Ġpai": 2539,
      "par": 2540,
      "Ã©dio": 2541,
      "rocura": 2542,
      "Ġdeu": 2543,
      "bo": 2544,
      "Ġfala": 2545,
      "tafor": 2546,
      "Ġresposta": 2547,
      "Ã©rc": 2548,
      "ila": 2549,
      "ĠCol": 2550,
      "Ġpap": 2551,
      "ĠÃ³rgÃ£o": 2552,
      "Ġcandidato": 2553,
      "Ġz": 2554,
      "ministro": 2555,
      "Ġpreciso": 2556,
      "ĠCl": 2557,
      "Ġpossibilidade": 2558,
      "Ġexig": 2559,
      "ĠMoro": 2560,
      "ĠÃ¡reas": 2561,
      "eja": 2562,
      "ĠRÃºssia": 2563,
      "Ġep": 2564,
      "Ġabor": 2565,
      "vida": 2566,
      "ĠrelatÃ³rio": 2567,
      "Ġmovimento": 2568,
      "Ġabs": 2569,
      "Ġtecn": 2570,
      "ĠespaÃ§o": 2571,
      "Ġhospital": 2572,
      "ĠSecret": 2573,
      "ĠprÃ¡tica": 2574,
      "ĠDep": 2575,
      "Ġdevem": 2576,
      "Ġauto": 2577,
      "The": 2578,
      "Ġperf": 2579,
      "Ġdemo": 2580,
      "Ġimpl": 2581,
      "ubro": 2582,
      "ĠCon": 2583,
      "ulta": 2584,
      "Ġdoses": 2585,
      "Ġfamil": 2586,
      "Ġsabe": 2587,
      "Ġshow": 2588,
      "irar": 2589,
      "Ġmater": 2590,
      "anÃ§as": 2591,
      "ĠpÃºblicos": 2592,
      "Ã¡tico": 2593,
      "Ġquad": 2594,
      "Ġinternacional": 2595,
      "isÃµes": 2596,
      "tada": 2597,
      "ĠestratÃ©g": 2598,
      "ĠTV": 2599,
      "olina": 2600,
      "Ġcontrole": 2601,
      "ĠDef": 2602,
      "Ġrelig": 2603,
      "Ġband": 2604,
      "Ġatr": 2605,
      "ĠvÃŃtima": 2606,
      "ĠÃŃnd": 2607,
      "adeira": 2608,
      "nos": 2609,
      "ÃŃm": 2610,
      "iÃ¡rio": 2611,
      "pressÃ£o": 2612,
      "Ġplatafor": 2613,
      "Ġdim": 2614,
      "wit": 2615,
      "Ġdomin": 2616,
      "Ġ40": 2617,
      "nÃ£o": 2618,
      "ruz": 2619,
      "ĠmÃ©dico": 2620,
      "Ġpequ": 2621,
      "Ġfat": 2622,
      "iver": 2623,
      "ĠCiro": 2624,
      "eiÃ§Ã£o": 2625,
      "ĠdÃ¡": 2626,
      "eca": 2627,
      "gue": 2628,
      "Ġ27": 2629,
      "Ġcontr": 2630,
      "Ġoutubro": 2631,
      "Ã©rcito": 2632,
      "cand": 2633,
      "ĠveÃŃc": 2634,
      "Uma": 2635,
      "sal": 2636,
      "ork": 2637,
      "iadores": 2638,
      "postas": 2639,
      "Ġcovid": 2640,
      "ĠpÃºblicas": 2641,
      "Ġ21": 2642,
      "CrÃ©dito": 2643,
      "ĠserÃ£o": 2644,
      "ence": 2645,
      "ĠPar": 2646,
      "Ġvice": 2647,
      "Ġprincipalmente": 2648,
      "ĠLe": 2649,
      "Ġesquerda": 2650,
      "sociaÃ§Ã£o": 2651,
      "Ġnuma": 2652,
      "ua": 2653,
      "Ġpen": 2654,
      "Ġdetal": 2655,
      "istÃªncia": 2656,
      "Ġconvers": 2657,
      "ĠMinas": 2658,
      "itor": 2659,
      "ĠEuro": 2660,
      "ĠAlexand": 2661,
      "ĠBr": 2662,
      "Ġanim": 2663,
      "Ġcentro": 2664,
      "idor": 2665,
      "aiu": 2666,
      "Ġseis": 2667,
      "Ġtraz": 2668,
      "Ġprazo": 2669,
      "Ġassum": 2670,
      "ty": 2671,
      "ĠmÃŃn": 2672,
      "ĠPlanal": 2673,
      "Ġvotou": 2674,
      "ĠÃģ": 2675,
      "Ġdezembro": 2676,
      "ĠinstituiÃ§Ãµes": 2677,
      "Ġcart": 2678,
      "ĠLegenda": 2679,
      "rantes": 2680,
      "isso": 2681,
      "icion": 2682,
      "ĠBa": 2683,
      "Ġsuc": 2684,
      "ack": 2685,
      "Ġperman": 2686,
      "essÃ£o": 2687,
      "ront": 2688,
      "Ġdema": 2689,
      "ĠTr": 2690,
      "ĠMoraes": 2691,
      "AM": 2692,
      "Ġcompara": 2693,
      "Ġimped": 2694,
      "Ġpagar": 2695,
      "ear": 2696,
      "Ġprej": 2697,
      "Ġcompanh": 2698,
      "quivo": 2699,
      "FP": 2700,
      "ogo": 2701,
      "Ġlista": 2702,
      "Ġlidera": 2703,
      "Ġ22": 2704,
      "Ġgar": 2705,
      "Ġforn": 2706,
      "ĠFranc": 2707,
      "Ã¡ticas": 2708,
      "Ã§amento": 2709,
      "mit": 2710,
      "ĠPM": 2711,
      "Ġaconteceu": 2712,
      "Ġdemocracia": 2713,
      "JÃ¡": 2714,
      "Ġlegal": 2715,
      "isto": 2716,
      "ĠserviÃ§o": 2717,
      "evereiro": 2718,
      "Ġmortes": 2719,
      "Ġforte": 2720,
      "Ġirm": 2721,
      "Ġmanter": 2722,
      "gos": 2723,
      "Ġesqu": 2724,
      "oje": 2725,
      "ello": 2726,
      "Ġpot": 2727,
      "Ġcirc": 2728,
      "Ġpagamento": 2729,
      "Ġileg": 2730,
      "rupÃ§Ã£o": 2731,
      "entual": 2732,
      "Ġcriminos": 2733,
      "MS": 2734,
      "endas": 2735,
      "cos": 2736,
      "cast": 2737,
      "Ġcrimes": 2738,
      "iores": 2739,
      "Ġobjetivo": 2740,
      "Ġpesquisas": 2741,
      "witter": 2742,
      "ĠhistÃ³r": 2743,
      "Ġrecor": 2744,
      "Ġfevereiro": 2745,
      "ĠTem": 2746,
      "Ġdescob": 2747,
      "inham": 2748,
      "ĠReg": 2749,
      "000": 2750,
      "Ġeletr": 2751,
      "Ġescola": 2752,
      "Ã¡r": 2753,
      "Ġreaj": 2754,
      "acia": 2755,
      "Ġconden": 2756,
      "tra": 2757,
      "ves": 2758,
      "eitoral": 2759,
      "Ġinteress": 2760,
      "ĠanÃ¡lise": 2761,
      "Ġtentar": 2762,
      "Ġdispon": 2763,
      "Ġajuda": 2764,
      "Ġmaiores": 2765,
      "Ġtrata": 2766,
      "ĠPed": 2767,
      "ĠLu": 2768,
      "Ġdiferentes": 2769,
      "Ġrespeito": 2770,
      "eleg": 2771,
      "Ġcur": 2772,
      "arou": 2773,
      "Ġevitar": 2774,
      "loc": 2775,
      "Ġgovernador": 2776,
      "Ġnovos": 2777,
      "fica": 2778,
      "Ġsejam": 2779,
      "ÃŃcios": 2780,
      "Ġanalis": 2781,
      "ĠPlanalto": 2782,
      "Ġato": 2783,
      "Ġdesses": 2784,
      "Ġjudic": 2785,
      "ĠEles": 2786,
      "tro": 2787,
      "ites": 2788,
      "ĠAb": 2789,
      "eta": 2790,
      "Ġsubst": 2791,
      "',": 2792,
      "RJ": 2793,
      "ÃŃdo": 2794,
      "ĠAlÃ©m": 2795,
      "rÃ³leo": 2796,
      "Ġapro": 2797,
      "Ġservid": 2798,
      "Ġfed": 2799,
      "Ġhomens": 2800,
      "ĠdifÃŃc": 2801,
      "cou": 2802,
      "Ġfilhos": 2803,
      "In": 2804,
      "Ġhab": 2805,
      "ĠEd": 2806,
      "osa": 2807,
      "ĠRob": 2808,
      "Ġseguint": 2809,
      "cara": 2810,
      "Ġsou": 2811,
      "Ġconclu": 2812,
      "igual": 2813,
      "Bolsonaro": 2814,
      "Ġcomunidade": 2815,
      "ĠConstitu": 2816,
      "ativas": 2817,
      "Ġautoridades": 2818,
      "ĠparticipaÃ§Ã£o": 2819,
      "Ġemp": 2820,
      "edia": 2821,
      "ĠPoder": 2822,
      "ritÃ³rio": 2823,
      "idar": 2824,
      "ianÃ§a": 2825,
      "Ġprat": 2826,
      "ĠvÃ¡rios": 2827,
      "ĠSecretaria": 2828,
      "una": 2829,
      "nas": 2830,
      "Ġconfl": 2831,
      "volve": 2832,
      "ĠMa": 2833,
      "Ġsemanas": 2834,
      "Ġide": 2835,
      "ĠinquÃ©rito": 2836,
      "man": 2837,
      "Ġpais": 2838,
      "Ġacredita": 2839,
      "rang": 2840,
      "Ġvot": 2841,
      "ĠforÃ§a": 2842,
      "Ġlic": 2843,
      "ipe": 2844,
      "Ġalimentos": 2845,
      "Ġorient": 2846,
      "ĠEleitoral": 2847,
      "ude": 2848,
      "Ġfar": 2849,
      "uno": 2850,
      "Ġnovas": 2851,
      "Ġsaber": 2852,
      "Ġtrabalhadores": 2853,
      "itou": 2854,
      "Ġliberdade": 2855,
      "Ġfome": 2856,
      "acionais": 2857,
      "ĠBrazil": 2858,
      "Ġtarde": 2859,
      "ama": 2860,
      "Ġespecialistas": 2861,
      "Ġraz": 2862,
      "ĠfuncionÃ¡rios": 2863,
      "Ġtema": 2864,
      "Ġcapacidade": 2865,
      "IC": 2866,
      "ĠSoc": 2867,
      "Ġpalav": 2868,
      "ĠUma": 2869,
      "Ġbal": 2870,
      "ĠNorte": 2871,
      "Ã¡g": 2872,
      "Ġdel": 2873,
      "Ġjunto": 2874,
      "ĠDire": 2875,
      "gn": 2876,
      "Ġdata": 2877,
      "Ġobserv": 2878,
      "icaÃ§Ãµes": 2879,
      "ussÃ£o": 2880,
      "ĠQuando": 2881,
      "Ġchegar": 2882,
      "30": 2883,
      "ĠMP": 2884,
      "ĠMaria": 2885,
      "Ġdela": 2886,
      "madas": 2887,
      "gues": 2888,
      "Ġcomprom": 2889,
      "ance": 2890,
      "):": 2891,
      "ber": 2892,
      "ĠBol": 2893,
      "ther": 2894,
      "inhas": 2895,
      "ĠcondiÃ§Ãµes": 2896,
      "ique": 2897,
      "Ġdesem": 2898,
      "Ġdeixar": 2899,
      "logo": 2900,
      "Ġing": 2901,
      "Ġassunto": 2902,
      "Ġrus": 2903,
      "Ġpassar": 2904,
      "hÃ£": 2905,
      "ĠFoi": 2906,
      "Ġcontrato": 2907,
      "Ġalunos": 2908,
      "icardo": 2909,
      "2021": 2910,
      "Ġdro": 2911,
      "ĠPresidÃªncia": 2912,
      "Ġpartidos": 2913,
      "ĠFre": 2914,
      "Ġpad": 2915,
      "olesc": 2916,
      "Ġrelator": 2917,
      "Ġestrutura": 2918,
      "PP": 2919,
      "Ġnenhuma": 2920,
      "Ġcultura": 2921,
      "reto": 2922,
      "xim": 2923,
      "Ã©tr": 2924,
      "Ġcabe": 2925,
      "Ġps": 2926,
      "Ġexiste": 2927,
      "Ġst": 2928,
      "ĠExÃ©rcito": 2929,
      "ĠjurÃŃd": 2930,
      "Ġdizem": 2931,
      "ense": 2932,
      "Ġvag": 2933,
      "ĠAra": 2934,
      "Ġpeg": 2935,
      "Ġchamado": 2936,
      "Ġcrescimento": 2937,
      "Ġplano": 2938,
      "ĠdoenÃ§a": 2939,
      "ndia": 2940,
      "Ġcarro": 2941,
      "Ġplant": 2942,
      "Ġcoisas": 2943,
      "Ġnoite": 2944,
      "ĠSou": 2945,
      "ĠproteÃ§Ã£o": 2946,
      "Ġment": 2947,
      "iamento": 2948,
      "ĠAlexandre": 2949,
      "ferÃªncia": 2950,
      "Ġcoronav": 2951,
      "cas": 2952,
      "Ġhora": 2953,
      "Ġpromov": 2954,
      "ile": 2955,
      "Ġluc": 2956,
      "Quando": 2957,
      "Ġnovembro": 2958,
      "Co": 2959,
      "10": 2960,
      "Ġtro": 2961,
      "ĠsecretÃ¡rio": 2962,
      "Ġsite": 2963,
      "Ġusu": 2964,
      "Ġmemb": 2965,
      "Ġgera": 2966,
      "Ġpacientes": 2967,
      "Ġtelef": 2968,
      "ĠGrande": 2969,
      "ĠNov": 2970,
      "ĠmÃ¡s": 2971,
      "Ġrecom": 2972,
      "Ġenvolv": 2973,
      "Ġcritic": 2974,
      "Ġprogram": 2975,
      ",\"": 2976,
      "efic": 2977,
      "ĠnegÃ³": 2978,
      "Ġpapel": 2979,
      "ges": 2980,
      "Ġretor": 2981,
      "Ġinternet": 2982,
      "Ġcontas": 2983,
      "esqu": 2984,
      "ĠprÃ³ximo": 2985,
      "Ġjovens": 2986,
      "ĠMilitar": 2987,
      "Ġmaneira": 2988,
      "ĠeletrÃ´n": 2989,
      "Ġfrequ": 2990,
      "Ġpasta": 2991,
      "ulas": 2992,
      "Ġcompet": 2993,
      "Ġdemais": 2994,
      "Ġvista": 2995,
      "ts": 2996,
      "Ġturno": 2997,
      "reveu": 2998,
      "omes": 2999,
      "ĠeducaÃ§Ã£o": 3000,
      "ificaÃ§Ã£o": 3001,
      "Ġisol": 3002,
      "Ġataques": 3003,
      "ner": 3004,
      "terior": 3005,
      "Ġocorreu": 3006,
      "quele": 3007,
      "Ġglobal": 3008,
      "Ġalguma": 3009,
      "Out": 3010,
      "ĠConstituiÃ§Ã£o": 3011,
      "Ġcomerc": 3012,
      "Ġcomprov": 3013,
      "Ġencontro": 3014,
      "ĠdifÃŃcil": 3015,
      "22": 3016,
      "imentar": 3017,
      "Ġposit": 3018,
      "ĠPF": 3019,
      "undo": 3020,
      "ĠnotÃŃcias": 3021,
      "ĠespÃ©c": 3022,
      "Ġali": 3023,
      "uters": 3024,
      "Ġimpacto": 3025,
      "enho": 3026,
      "Ġcaminh": 3027,
      "Ġarmas": 3028,
      "ĠConselho": 3029,
      "hes": 3030,
      "entares": 3031,
      "Ġdeixou": 3032,
      "amp": 3033,
      "Ġ2017": 3034,
      "Ġusar": 3035,
      "ĠPalÃ¡cio": 3036,
      "Ġsta": 3037,
      "ĠninguÃ©m": 3038,
      "itado": 3039,
      "ĠAo": 3040,
      "Ġpreso": 3041,
      "Ġdiscut": 3042,
      "Ġambiente": 3043,
      "Ġprete": 3044,
      "Ġconsid": 3045,
      "Ã³dio": 3046,
      "Ġtaxa": 3047,
      "Ġgeneral": 3048,
      "Ġlegis": 3049,
      "Ġnatura": 3050,
      "Ġcontribu": 3051,
      "Ġestamos": 3052,
      "ĠLima": 3053,
      "ebo": 3054,
      "Ġdeveria": 3055,
      "ilizaÃ§Ã£o": 3056,
      "izados": 3057,
      "posto": 3058,
      "Ġconfirm": 3059,
      "Ġdiminu": 3060,
      "utos": 3061,
      "Ġaux": 3062,
      "tados": 3063,
      "Ġlocais": 3064,
      "ĠDan": 3065,
      "Ġprodu": 3066,
      "Ġmandato": 3067,
      "izaÃ§Ãµes": 3068,
      "ĠvÃŃtimas": 3069,
      "Ġfun": 3070,
      "Ġmore": 3071,
      "Ġgasolina": 3072,
      "Ġbenef": 3073,
      "Ġanterior": 3074,
      "Ġrespondeu": 3075,
      "ĠEconomia": 3076,
      "Ġsair": 3077,
      "izou": 3078,
      "inado": 3079,
      "ola": 3080,
      "RS": 3081,
      "ĠRib": 3082,
      "Ġconcor": 3083,
      "ĠpetrÃ³leo": 3084,
      "Ġgarantir": 3085,
      "ĠDefesa": 3086,
      "Ġsup": 3087,
      "ĠmunicÃŃpios": 3088,
      "Ġimagens": 3089,
      "Ġclaro": 3090,
      "Ġfazendo": 3091,
      "Ġ198": 3092,
      "Ġrua": 3093,
      "ES": 3094,
      "ĠcrianÃ§a": 3095,
      "quina": 3096,
      "Ġtiveram": 3097,
      "ĠForÃ§as": 3098,
      "Ġchefe": 3099,
      "ĠGuedes": 3100,
      "Ġ23": 3101,
      "Ġentrar": 3102,
      "Ġdiante": 3103,
      "ĠSup": 3104,
      "ĠIntern": 3105,
      "ui": 3106,
      "angÃ©l": 3107,
      "ĠeconÃ´mica": 3108,
      "Ġ26": 3109,
      "ramento": 3110,
      "Ġjornalista": 3111,
      "Ġatra": 3112,
      "ĠAmÃ©r": 3113,
      "Ġplane": 3114,
      "Ġacresc": 3115,
      "Ġ2016": 3116,
      "Ġdepoimento": 3117,
      "Ġblo": 3118,
      "Ġconj": 3119,
      "Ġtenho": 3120,
      "uv": 3121,
      "Ġcidades": 3122,
      "Ġextra": 3123,
      "Ġterra": 3124,
      "enciais": 3125,
      "erou": 3126,
      "rais": 3127,
      "ame": 3128,
      "ĠDoria": 3129,
      "Ã´nio": 3130,
      "ĠatrÃ¡s": 3131,
      "Ġmostram": 3132,
      "ede": 3133,
      "Ġprot": 3134,
      "Ġtend": 3135,
      "Ġconsta": 3136,
      "ĠRicardo": 3137,
      "ĠvotaÃ§Ã£o": 3138,
      "PR": 3139,
      "radas": 3140,
      "Ġpaulista": 3141,
      "Ġprova": 3142,
      "ĠDivulgaÃ§Ã£o": 3143,
      "ĠinformaÃ§Ã£o": 3144,
      "Ġembora": 3145,
      "Ġconseguiu": 3146,
      "tual": 3147,
      "Ġsentido": 3148,
      "Ġadolesc": 3149,
      "Ġsimpl": 3150,
      "ks": 3151,
      "Ġcontou": 3152,
      "Ġtrabalhar": 3153,
      "ĠmÃ¡scara": 3154,
      "ik": 3155,
      "ĠatuaÃ§Ã£o": 3156,
      "ĠsÃ¡b": 3157,
      "reja": 3158,
      "Ġalvo": 3159,
      "ÃŃrus": 3160,
      "Ġatividades": 3161,
      "edo": 3162,
      "ĠInd": 3163,
      "Ġelev": 3164,
      "ĠmudanÃ§as": 3165,
      "Ġsignifica": 3166,
      "Ġfalou": 3167,
      "ĠGomes": 3168,
      "onte": 3169,
      "Ġnorm": 3170,
      "Ġvig": 3171,
      "ĠFac": 3172,
      "Ġfir": 3173,
      "Ġprovoc": 3174,
      "ĠnÃŃvel": 3175,
      "iza": 3176,
      "ĠCasa": 3177,
      "ĠinstituiÃ§Ã£o": 3178,
      "Ġagentes": 3179,
      "Ġ,": 3180,
      "Ġdevido": 3181,
      "Des": 3182,
      "ĠAg": 3183,
      "Ġatos": 3184,
      "%)": 3185,
      "Ġlit": 3186,
      "Ġsolic": 3187,
      "anho": 3188,
      "Ġsexual": 3189,
      "Ã¡c": 3190,
      "Ġtinham": 3191,
      "Ġregras": 3192,
      "Ġocas": 3193,
      "riu": 3194,
      "Ġnecessidade": 3195,
      "ĠaÃŃ": 3196,
      "Ġcomand": 3197,
      "enÃ§as": 3198,
      "fa": 3199,
      "50": 3200,
      "uros": 3201,
      "ans": 3202,
      "Ãºst": 3203,
      "Ġprocessos": 3204,
      "Ġcul": 3205,
      "Ġamigos": 3206,
      "imentaÃ§Ã£o": 3207,
      "ĠSeguranÃ§a": 3208,
      "ĠpresenÃ§a": 3209,
      "itais": 3210,
      "Ġafirm": 3211,
      "Ġbom": 3212,
      "tagram": 3213,
      "Ġfundament": 3214,
      "rando": 3215,
      "ĠpressÃ£o": 3216,
      "ĠavaliaÃ§Ã£o": 3217,
      "ĠatenÃ§Ã£o": 3218,
      "ĠBarros": 3219,
      "ĠCentro": 3220,
      "usta": 3221,
      "ividade": 3222,
      "Ġdocumentos": 3223,
      "Ġensino": 3224,
      "uncia": 3225,
      "Ġimport": 3226,
      "Ġgastos": 3227,
      "ipal": 3228,
      "ĠLira": 3229,
      "Ġterras": 3230,
      "Ġocorre": 3231,
      "Ġcontrol": 3232,
      "ĠMed": 3233,
      "ilh": 3234,
      "aparec": 3235,
      "ĠconteÃºdo": 3236,
      "Ġtrib": 3237,
      "Ġescolas": 3238,
      "itÃ¡ria": 3239,
      "Ġcivil": 3240,
      "Ġboa": 3241,
      "ÃŃstica": 3242,
      "DT": 3243,
      "uras": 3244,
      "Ġcombate": 3245,
      "erÃ¡": 3246,
      "taram": 3247,
      "ĠAf": 3248,
      "Ġrecup": 3249,
      "Ġwe": 3250,
      "Ġlevar": 3251,
      "Ġmuita": 3252,
      "Ġaponta": 3253,
      "hia": 3254,
      "Ġet": 3255,
      "ĠLuc": 3256,
      "Ġ2014": 3257,
      "ti": 3258,
      "Ġressal": 3259,
      "ĠfÃŃs": 3260,
      "Ġregul": 3261,
      "Ġchin": 3262,
      "Ġopin": 3263,
      "Ġquis": 3264,
      "ĠcomissÃ£o": 3265,
      "Ġdessas": 3266,
      "Ġreforma": 3267,
      "ĠdÃŃ": 3268,
      "tamos": 3269,
      "Ġemerg": 3270,
      "Ġconseguir": 3271,
      "Ġestadual": 3272,
      "Ġserem": 3273,
      "elas": 3274,
      "eter": 3275,
      "cionais": 3276,
      "erva": 3277,
      "ĠMarcelo": 3278,
      "18": 3279,
      "raram": 3280,
      "ĠcoronavÃŃrus": 3281,
      "Ġtheir": 3282,
      "ificar": 3283,
      "Ġdecidiu": 3284,
      "Ġfilha": 3285,
      "Ġjovem": 3286,
      "Ġparlamentares": 3287,
      "Ġvere": 3288,
      "Ġmaterial": 3289,
      "Ġlong": 3290,
      "ĠON": 3291,
      "ĠcorrupÃ§Ã£o": 3292,
      "Ġsofre": 3293,
      "Ġbenefic": 3294,
      "Is": 3295,
      "Ġconsumo": 3296,
      "Ġcoorden": 3297,
      "Ġvenda": 3298,
      "Ġusado": 3299,
      "iante": 3300,
      "Ġinvas": 3301,
      "Ġparlamentar": 3302,
      "Ġlevantamento": 3303,
      "Ġvou": 3304,
      "Ġdeputados": 3305,
      "Ġthis": 3306,
      "Ġcompart": 3307,
      "Ġtransfor": 3308,
      "Ġbeb": 3309,
      "ĠinvestigaÃ§Ãµes": 3310,
      "ĠUOL": 3311,
      "Un": 3312,
      "Ġaleg": 3313,
      "ĠgÃ¡s": 3314,
      "Ġdesenvolvimento": 3315,
      "ĠIm": 3316,
      "Ġinteresse": 3317,
      "Ġvenc": 3318,
      "ĠTwitter": 3319,
      "ĠalguÃ©m": 3320,
      "Ġreais": 3321,
      "'.": 3322,
      "Ġclass": 3323,
      "ĠCrist": 3324,
      "ĠevangÃ©l": 3325,
      "ĠmanhÃ£": 3326,
      "Ġtentativa": 3327,
      "Ġpopular": 3328,
      "Ġsust": 3329,
      "ĠArmadas": 3330,
      "Ġcriar": 3331,
      "esmo": 3332,
      "Ġprofissionais": 3333,
      "old": 3334,
      "Ġentender": 3335,
      "BL": 3336,
      "ĠorganizaÃ§Ã£o": 3337,
      "ĠcrÃŃticas": 3338,
      "Ġindepend": 3339,
      "Ġgarim": 3340,
      "Ġdebate": 3341,
      "15": 3342,
      "MDB": 3343,
      "Ġ28": 3344,
      "Ġestatal": 3345,
      "hat": 3346,
      "Ġcompor": 3347,
      "ĠPodcast": 3348,
      "Ġprojet": 3349,
      "Ġconhecido": 3350,
      "Ġpobre": 3351,
      "Folha": 3352,
      "Ġarm": 3353,
      "Ġvers": 3354,
      "ĠBruno": 3355,
      "Ġ60": 3356,
      "Ġpetista": 3357,
      "ĠnecessÃ¡rio": 3358,
      "ĠGet": 3359,
      "Ġmostrou": 3360,
      "Ġacabou": 3361,
      "esel": 3362,
      "Ġescreveu": 3363,
      "Ġmembros": 3364,
      "Ġdiesel": 3365,
      "Ġvoltou": 3366,
      "Ġmodelo": 3367,
      "PC": 3368,
      "artamento": 3369,
      "Ġordem": 3370,
      "Ġpior": 3371,
      "Ġperson": 3372,
      "Ġnews": 3373,
      "Ġestudos": 3374,
      "ement": 3375,
      "Ġconversa": 3376,
      "SÃ£o": 3377,
      "Ġrej": 3378,
      "Ġdeclarou": 3379,
      "thur": 3380,
      "ionado": 3381,
      "Ġdiss": 3382,
      "ĠTrabal": 3383,
      "dio": 3384,
      "Ġfazem": 3385,
      "ĠAmb": 3386,
      "Ġinvestimentos": 3387,
      "uldade": 3388,
      "Ġhor": 3389,
      "ini": 3390,
      "ĠAmazon": 3391,
      "ĠsÃ¡bado": 3392,
      "ĠÃºnica": 3393,
      "Ġseguinte": 3394,
      "Ġdomingo": 3395,
      "Ġentrou": 3396,
      "Ġalto": 3397,
      "ĠmilhÃ£o": 3398,
      "âĢĭ": 3399,
      "ĠterÃ¡": 3400,
      "Ġambiental": 3401,
      "ativos": 3402,
      "Ġpesquisadores": 3403,
      "Ġdiferente": 3404,
      "ĠFernando": 3405,
      "idem": 3406,
      "ath": 3407,
      "Ġresponsabilidade": 3408,
      "Ġentreg": 3409,
      "Ġenvolve": 3410,
      "ĠvÃ¡rias": 3411,
      "Ġimagem": 3412,
      "ApÃ³s": 3413,
      "ulares": 3414,
      "ĠPedro": 3415,
      "wn": 3416,
      "Ġemprego": 3417,
      "16": 3418,
      "bra": 3419,
      "Ġcha": 3420,
      "Ġdisputa": 3421,
      "Ġdiversos": 3422,
      "Ġperde": 3423,
      "Ġinicia": 3424,
      "gio": 3425,
      "atÃ³rio": 3426,
      "visa": 3427,
      "Ġmult": 3428,
      "ĠrÃ¡": 3429,
      "ÃŃdio": 3430,
      "ely": 3431,
      "anda": 3432,
      "Re": 3433,
      "eras": 3434,
      "Ġdesma": 3435,
      "ugu": 3436,
      "Ġcomum": 3437,
      "Ġexerc": 3438,
      "ĠcontrÃ¡rio": 3439,
      "ĠMe": 3440,
      "Ġdemonst": 3441,
      "Ġbranc": 3442,
      "atar": 3443,
      "log": 3444,
      "pas": 3445,
      "Ġserv": 3446,
      "TE": 3447,
      "Ġconsequ": 3448,
      "Ã©re": 3449,
      "fia": 3450,
      "arg": 3451,
      "ĠEducaÃ§Ã£o": 3452,
      "ĠBrasileira": 3453,
      "Ġdir": 3454,
      "Ġpromo": 3455,
      "HÃ¡": 3456,
      "ficiente": 3457,
      "ĠpublicaÃ§Ã£o": 3458,
      "Ġconstitu": 3459,
      "Ġirreg": 3460,
      "Ġcusto": 3461,
      "ier": 3462,
      "Ġpropri": 3463,
      "ĠÃ³rgÃ£os": 3464,
      "Ġmensagens": 3465,
      "alh": 3466,
      "enso": 3467,
      "ĠEntÃ£o": 3468,
      "ven": 3469,
      "Ġ29": 3470,
      "Ġimedia": 3471,
      "ĠdenÃºncia": 3472,
      "ariam": 3473,
      "Ġincluindo": 3474,
      "Ġfuturo": 3475,
      "ckmin": 3476,
      "Ġnessa": 3477,
      "uste": 3478,
      "Ġalc": 3479,
      "vidas": 3480,
      "Ġagu": 3481,
      "Ġartigo": 3482,
      "ĠOliv": 3483,
      "Ġatrav": 3484,
      "Ġcidad": 3485,
      "Ġvamos": 3486,
      "rior": 3487,
      "ĠDom": 3488,
      "MG": 3489,
      "GE": 3490,
      "ys": 3491,
      "Ġcola": 3492,
      "Ġtre": 3493,
      "iga": 3494,
      "ĠrazÃ£o": 3495,
      "ural": 3496,
      "ĠdecisÃµes": 3497,
      "60": 3498,
      "eias": 3499,
      "Ġbastante": 3500,
      "ĠmÃ£o": 3501,
      "tando": 3502,
      "Ġcarta": 3503,
      "Ġaumentar": 3504,
      "ĠRoberto": 3505,
      "Ġgolpe": 3506,
      "gent": 3507,
      "uss": 3508,
      "Ġrepresenta": 3509,
      "Ġne": 3510,
      "ĠnÃºmeros": 3511,
      "VID": 3512,
      "ries": 3513,
      "ĠvÃŃdeos": 3514,
      "Ġdiversas": 3515,
      "Ġajudar": 3516,
      "Ġidade": 3517,
      "jas": 3518,
      "Ġjulgamento": 3519,
      "Ġreduzir": 3520,
      "anÃ§o": 3521,
      "ĠHÃ¡": 3522,
      "ĠEntre": 3523,
      "inete": 3524,
      "Ġmim": 3525,
      "Ġapesar": 3526,
      "ĠPaz": 3527,
      "ĠPÃºblica": 3528,
      "Ġits": 3529,
      "Ġresultados": 3530,
      "Ġhad": 3531,
      "Ġlevou": 3532,
      "ĠbÃ¡s": 3533,
      "Ġconforme": 3534,
      "Ġtrim": 3535,
      "ĠRibeiro": 3536,
      "tan": 3537,
      "Ġunivers": 3538,
      "ĠmunicÃŃpio": 3539,
      "Ġobra": 3540,
      "nÃ¡": 3541,
      "ĠministÃ©rio": 3542,
      "ĠAmÃ©rica": 3543,
      "Ġapoiadores": 3544,
      "ĠconstruÃ§Ã£o": 3545,
      "Ġmac": 3546,
      "ĠsalÃ¡rio": 3547,
      "ĠvÃŃrus": 3548,
      "abinete": 3549,
      "Ġdesaparec": 3550,
      "Ġproduto": 3551,
      "Ġfeitas": 3552,
      "Ġsinal": 3553,
      "Ġprepara": 3554,
      "ĠCOVID": 3555,
      "Ġthey": 3556,
      "Ġdelas": 3557,
      "onel": 3558,
      "Ġhis": 3559,
      "Ġrest": 3560,
      "ÃŃnio": 3561,
      "Ġwho": 3562,
      "ĠArquivo": 3563,
      "Ġ31": 3564,
      "ĠcriaÃ§Ã£o": 3565,
      "king": 3566,
      "ĠSerg": 3567,
      "Ġrealidade": 3568,
      "ĠquestÃµes": 3569,
      "Ġmoradores": 3570,
      "asc": 3571,
      "arda": 3572,
      "Ġjunt": 3573,
      "Ġdemanda": 3574,
      "ĠempresÃ¡rio": 3575,
      "ebook": 3576,
      "Ġcant": 3577,
      "Ġurnas": 3578,
      "ĠprÃ³ximos": 3579,
      "Ġretira": 3580,
      "ĠArthur": 3581,
      "Ġilegal": 3582,
      "Ġobt": 3583,
      "each": 3584,
      "fo": 3585,
      "ĠTambÃ©m": 3586,
      "Ġquantidade": 3587,
      "bilidade": 3588,
      "Ġsin": 3589,
      "ensa": 3590,
      "ous": 3591,
      "ĠcÃ¢m": 3592,
      "cios": 3593,
      "ĠdÃ³l": 3594,
      "Ġestou": 3595,
      "Ġperda": 3596,
      "ĠDeus": 3597,
      "ĠNos": 3598,
      "Ġconserv": 3599,
      "ialmente": 3600,
      "ted": 3601,
      "Ġsug": 3602,
      "Ġreligios": 3603,
      "ĠveÃŃculos": 3604,
      "Ġresta": 3605,
      "Ġpobres": 3606,
      "Ġregistro": 3607,
      "ĠSanta": 3608,
      "ident": 3609,
      "Ġsimples": 3610,
      "eitar": 3611,
      "Ġpena": 3612,
      "inados": 3613,
      "Ġbair": 3614,
      "Ġestabelec": 3615,
      "Ġcurso": 3616,
      "vest": 3617,
      "Ġpun": 3618,
      "Ġteto": 3619,
      "Ġprefeitura": 3620,
      "ones": 3621,
      "Ġwere": 3622,
      "Ġfatos": 3623,
      "Ġren": 3624,
      "vez": 3625,
      "Ġtomar": 3626,
      "Ġdireita": 3627,
      "portun": 3628,
      "ume": 3629,
      "Ġseguir": 3630,
      "Ġsenh": 3631,
      "Ġfundo": 3632,
      "Ġcandidatos": 3633,
      "RA": 3634,
      "Ġoito": 3635,
      "Ġafet": 3636,
      "Ġvoltar": 3637,
      "ĠDepois": 3638,
      "Ã³digo": 3639,
      "ari": 3640,
      "ĠEssa": 3641,
      "larec": 3642,
      "Ġatividade": 3643,
      "Ġmensagem": 3644,
      "Ġrou": 3645,
      "Ġnasc": 3646,
      "ĠCN": 3647,
      "Ġaliados": 3648,
      "Ġpress": 3649,
      "Ġsegue": 3650,
      "Ġclim": 3651,
      "Ġirregular": 3652,
      "gh": 3653,
      "dad": 3654,
      "Ġpublicado": 3655,
      "ĠcientÃŃ": 3656,
      "hing": 3657,
      "Ġmens": 3658,
      "Ġsete": 3659,
      "usto": 3660,
      "ÃŃdu": 3661,
      "ĠvÃª": 3662,
      "Ġanunciou": 3663,
      "ĠNova": 3664,
      "ĠMo": 3665,
      "Ġprior": 3666,
      "stico": 3667,
      "Ġpedir": 3668,
      "ĠmÃ©dio": 3669,
      "Ġ2015": 3670,
      "Ġempreg": 3671,
      "Ġrecomend": 3672,
      "Ġassess": 3673,
      "ificado": 3674,
      "Ġlivro": 3675,
      "Ġcolocar": 3676,
      "ncio": 3677,
      "rativa": 3678,
      "Ġtrec": 3679,
      "odos": 3680,
      "Ġencam": 3681,
      "Ġqualidade": 3682,
      "iares": 3683,
      "rique": 3684,
      "ĠBo": 3685,
      "leia": 3686,
      "Ġdivid": 3687,
      "Ġvisto": 3688,
      "Ġ.": 3689,
      "Ġplataforma": 3690,
      "PSDB": 3691,
      "Ġpropor": 3692,
      "Ġderru": 3693,
      "Ġtecnologia": 3694,
      "ĠOliveira": 3695,
      "ĠcomunicaÃ§Ã£o": 3696,
      "Entre": 3697,
      "ĠCap": 3698,
      "Ġbat": 3699,
      "Ġassass": 3700,
      "Ġruas": 3701,
      "erado": 3702,
      "Ġvisita": 3703,
      "Ġmund": 3704,
      "Ġ70": 3705,
      "ĠAndrÃ©": 3706,
      "Ġcita": 3707,
      "ĠSP": 3708,
      "inhos": 3709,
      "ĠComissÃ£o": 3710,
      "Ġlogo": 3711,
      "Ġmotor": 3712,
      "Ġdescon": 3713,
      "Ġpassada": 3714,
      "ĠOu": 3715,
      "Ġindivid": 3716,
      "cter": 3717,
      "Ġcanal": 3718,
      "17": 3719,
      "Ãį": 3720,
      "oresta": 3721,
      "ĠBahia": 3722,
      "Ġinternacionais": 3723,
      "ĠameaÃ§a": 3724,
      "ĠPI": 3725,
      "Ġinstal": 3726,
      "Ġdefende": 3727,
      "Ġsequ": 3728,
      "Ġnomes": 3729,
      "Ġevid": 3730,
      "Ġprojetos": 3731,
      "Ġdestru": 3732,
      "overno": 3733,
      "Ġhumanos": 3734,
      "Ġprocedimento": 3735,
      "Ġimpeach": 3736,
      "ilma": 3737,
      "Ġmedo": 3738,
      "Nos": 3739,
      "soc": 3740,
      "ĠÃºnico": 3741,
      "Ġcompanhia": 3742,
      "ates": 3743,
      "enham": 3744,
      "Apesar": 3745,
      "isse": 3746,
      "oss": 3747,
      "ĠAFP": 3748,
      "Ġefet": 3749,
      "Ġreto": 3750,
      "Ġataque": 3751,
      "Ġprivat": 3752,
      "ald": 3753,
      "Ġesclarec": 3754,
      "AL": 3755,
      "ĠCosta": 3756,
      "ĠMac": 3757,
      "Ġintegrantes": 3758,
      "Ġimpeachment": 3759,
      "ube": 3760,
      "Ġextrem": 3761,
      "ĠRen": 3762,
      "Ġtermos": 3763,
      "Ġdizendo": 3764,
      "AgÃªncia": 3765,
      "Ã¡vio": 3766,
      "ĠmÃ©dicos": 3767,
      "Con": 3768,
      "Ġalimentar": 3769,
      "Ãºstria": 3770,
      "ĠoposiÃ§Ã£o": 3771,
      "Ġvaz": 3772,
      "riÃ§Ã£o": 3773,
      "ĠParanÃ¡": 3774,
      "Ġprefeito": 3775,
      "ĠmÃºs": 3776,
      "Rep": 3777,
      "utas": 3778,
      "ĠLa": 3779,
      "Ġdigital": 3780,
      "ĠPEC": 3781,
      "ĠsaÃŃda": 3782,
      "Ġmoto": 3783,
      "Ġsemelh": 3784,
      "tivas": 3785,
      "ĠFil": 3786,
      "Ġunidade": 3787,
      "Ġmudar": 3788,
      "Ġpresidencial": 3789,
      "Ġabsol": 3790,
      "Ã©rios": 3791,
      "Ġcomprar": 3792,
      "Ġchega": 3793,
      "ĠPU": 3794,
      "ĠCentral": 3795,
      "Ġmob": 3796,
      "all": 3797,
      "ĠGerais": 3798,
      "ĠJac": 3799,
      "ĠespÃ©cie": 3800,
      "Ġnatural": 3801,
      "Ġbloque": 3802,
      "ĠSem": 3803,
      "Ġcorte": 3804,
      "Ġtornou": 3805,
      "Ġwhich": 3806,
      "enos": 3807,
      "Ġacion": 3808,
      "eliz": 3809,
      "tica": 3810,
      "ĠterritÃ³rio": 3811,
      "Ġsubs": 3812,
      "NS": 3813,
      "Ġnar": 3814,
      "ĠBanco": 3815,
      "ĠaprovaÃ§Ã£o": 3816,
      "Ġagric": 3817,
      "ĠTrump": 3818,
      "Ġproib": 3819,
      "Ġprecisam": 3820,
      "ĠestratÃ©gia": 3821,
      "Isso": 3822,
      "ĠjuÃŃ": 3823,
      "Ġavalia": 3824,
      "estrutura": 3825,
      "Ġdenunc": 3826,
      "Ġchamada": 3827,
      "ĠposiÃ§Ã£o": 3828,
      "zes": 3829,
      "itÃ¡rio": 3830,
      "Ġarma": 3831,
      "ĠAnvisa": 3832,
      "Ġcandidatura": 3833,
      "Est": 3834,
      "Ġsubstitu": 3835,
      "Ġderrub": 3836,
      "Ġsuperior": 3837,
      "TV": 3838,
      "Ġsens": 3839,
      "Ġprovas": 3840,
      "abri": 3841,
      "geral": 3842,
      "Ġparal": 3843,
      "Essa": 3844,
      "ulado": 3845,
      "ĠAlckmin": 3846,
      "Ainda": 3847,
      "ĠorÃ§amento": 3848,
      "Ġmag": 3849,
      "ĠsÃ©c": 3850,
      "rentes": 3851,
      "Ġconhecimento": 3852,
      "ĠdÃ©cadas": 3853,
      "be": 3854,
      "ĠSer": 3855,
      "Ġtorno": 3856,
      "ĠBolsa": 3857,
      "Ġnat": 3858,
      "Ġinfec": 3859,
      "ĠSuperior": 3860,
      "entuais": 3861,
      "Ġjuiz": 3862,
      "iadas": 3863,
      "Ġcaminho": 3864,
      "elic": 3865,
      "Ġbeen": 3866,
      "ovos": 3867,
      "ĠespecÃŃ": 3868,
      "Ġanimais": 3869,
      "Ġquil": 3870,
      "Ġeng": 3871,
      "Ġdesmatamento": 3872,
      "Cont": 3873,
      "Ġposicion": 3874,
      "utados": 3875,
      "Ġtradic": 3876,
      "ĠregiÃµes": 3877,
      "esas": 3878,
      "Ġnorte": 3879,
      "Ġdaqu": 3880,
      "ople": 3881,
      "Ġcampo": 3882,
      "Ġcontinua": 3883,
      "ĠImages": 3884,
      "Ġsel": 3885,
      "Ġreel": 3886,
      "Ġacum": 3887,
      "Ġservidores": 3888,
      "Ã³p": 3889,
      "Ġdado": 3890,
      "pira": 3891,
      "Ġefeito": 3892,
      "Ã³rias": 3893,
      "ĠPereira": 3894,
      "ĠInstagram": 3895,
      "Ġreserv": 3896,
      "Ġepis": 3897,
      "],": 3898,
      "ĠdiscussÃ£o": 3899,
      "ĠDilma": 3900,
      "essora": 3901,
      "oso": 3902,
      "IDA": 3903,
      "Ġtrimestre": 3904,
      "Ã©ria": 3905,
      "Ġapare": 3906,
      "ĠEsse": 3907,
      "Ġtendo": 3908,
      "Ġfederais": 3909,
      "ĠDaniel": 3910,
      "Ġprimeiros": 3911,
      "missÃ£o": 3912,
      "Ġcontinuar": 3913,
      "iÃ³": 3914,
      "Ġoportun": 3915,
      "Ġtroca": 3916,
      "eix": 3917,
      "ĠintenÃ§Ã£o": 3918,
      "ĠmÃ©dica": 3919,
      "Ġjuros": 3920,
      "Ġescal": 3921,
      "Ġarqu": 3922,
      "ĠQueiro": 3923,
      "respo": 3924,
      "iste": 3925,
      "Ġimag": 3926,
      "12": 3927,
      "pro": 3928,
      "Ġsint": 3929,
      "Ġbaixa": 3930,
      "Ġrecente": 3931,
      "ĠHoje": 3932,
      "Ġconsumidor": 3933,
      "Ġeconomista": 3934,
      "ff": 3935,
      "Ġhig": 3936,
      "ĠZona": 3937,
      "ĠocasiÃ£o": 3938,
      "ĠPr": 3939,
      "Ġyou": 3940,
      "rum": 3941,
      "tadas": 3942,
      "Ġcoment": 3943,
      "Ġintel": 3944,
      "Ġatualmente": 3945,
      "ĠpÃ¡g": 3946,
      "Ġconcent": 3947,
      "oroquina": 3948,
      "Ġencaminh": 3949,
      "izer": 3950,
      "Ġgovernos": 3951,
      "Ã¢ne": 3952,
      "ren": 3953,
      "ĠPL": 3954,
      "Leia": 3955,
      "Ã§ar": 3956,
      "ace": 3957,
      "aran": 3958,
      "unes": 3959,
      "ĠInf": 3960,
      "ĠcomparaÃ§Ã£o": 3961,
      "Ġpossa": 3962,
      "ĠindÃŃgena": 3963,
      "ilha": 3964,
      "Ġaqueles": 3965,
      "veja": 3966,
      "usÃ£o": 3967,
      "Ġdemocr": 3968,
      "bito": 3969,
      "Ġvul": 3970,
      "Ġlinha": 3971,
      "Ġsenadores": 3972,
      "alidade": 3973,
      "ĠFam": 3974,
      "uello": 3975,
      "Ġtribunal": 3976,
      "Ġig": 3977,
      "Ġbanco": 3978,
      "Ġaproxim": 3979,
      "ĠopiniÃ£o": 3980,
      "ĠforÃ§as": 3981,
      "tÃ³rio": 3982,
      "uns": 3983,
      "ĠMan": 3984,
      "Ġacontece": 3985,
      "ĠLava": 3986,
      "Ela": 3987,
      "onha": 3988,
      "Ġinvestimento": 3989,
      "ĠdÃº": 3990,
      "iden": 3991,
      "Ġespecialmente": 3992,
      "ĠFacebook": 3993,
      "Ġprotest": 3994,
      "Ġcoleg": 3995,
      "Ġfizeram": 3996,
      "ĠmÃŃnimo": 3997,
      "tocol": 3998,
      "ail": 3999,
      "aval": 4000,
      "Ġconsiderado": 4001,
      "Ġrealizada": 4002,
      "Ġdefender": 4003,
      "Ġcong": 4004,
      "ĠagÃªncia": 4005,
      "Ġsomente": 4006,
      "Ġdrogas": 4007,
      "ĠFer": 4008,
      "ĠmÃ¡x": 4009,
      "Ġgrave": 4010,
      "ps": 4011,
      "unai": 4012,
      "Ġoferec": 4013,
      "ĠAgora": 4014,
      "Ġluta": 4015,
      "Ġvoc": 4016,
      "eda": 4017,
      "Ġapresentar": 4018,
      "ĠtÃ©cnica": 4019,
      "Ġefic": 4020,
      "tanto": 4021,
      "Ġaltern": 4022,
      "Ġinfluenc": 4023,
      "antas": 4024,
      "rel": 4025,
      "Ġtransporte": 4026,
      "Ġult": 4027,
      "Ġbut": 4028,
      "11": 4029,
      "ĠsalÃ¡rios": 4030,
      "ĠmanifestaÃ§Ãµes": 4031,
      "Pro": 4032,
      "posit": 4033,
      "pecta": 4034,
      "Ġmonito": 4035,
      "Ġaborto": 4036,
      "ĠPesqu": 4037,
      "ĠTerra": 4038,
      "ĠlegislaÃ§Ã£o": 4039,
      "LE": 4040,
      "ustr": 4041,
      "ĠmanifestaÃ§Ã£o": 4042,
      "Ac": 4043,
      "teza": 4044,
      "Ġpreserv": 4045,
      "Ġunidades": 4046,
      "Ġacontecer": 4047,
      "ĠdÃ©cada": 4048,
      "uto": 4049,
      "Ġestrang": 4050,
      "ak": 4051,
      "Ġrepet": 4052,
      "ĠPac": 4053,
      "Ġparece": 4054,
      "Veja": 4055,
      "udio": 4056,
      "Ġantec": 4057,
      "ĠlÃŃderes": 4058,
      "Ġterceira": 4059,
      "rei": 4060,
      "edor": 4061,
      "Ġhid": 4062,
      "Ġpeople": 4063,
      "ĠEuropa": 4064,
      "âĢ¦": 4065,
      "Ġapresentou": 4066,
      "ĠVale": 4067,
      "Ġatendimento": 4068,
      "ÃŃdos": 4069,
      "Ġcentral": 4070,
      "valho": 4071,
      "mento": 4072,
      "Ġsede": 4073,
      "ham": 4074,
      "Ġtroc": 4075,
      "etim": 4076,
      "toria": 4077,
      "turas": 4078,
      "eios": 4079,
      "ĠÃį": 4080,
      "ĠOut": 4081,
      "Ã¡ticos": 4082,
      "Ġcaracter": 4083,
      "ĠcabeÃ§a": 4084,
      "ĠDo": 4085,
      "Ġinterior": 4086,
      "Ġerro": 4087,
      "IS": 4088,
      "Ġalerta": 4089,
      "ĠRodrigues": 4090,
      "ĠIg": 4091,
      "inada": 4092,
      "ÃŃqu": 4093,
      "Ġdesaf": 4094,
      "Ã¢ncias": 4095,
      "Ġfotos": 4096,
      "Ġprefer": 4097,
      "enez": 4098,
      "Ġperto": 4099,
      "riga": 4100,
      "ĠaudiÃªncia": 4101,
      "ĠFund": 4102,
      "Ġyear": 4103,
      "Ġreajuste": 4104,
      "gentina": 4105,
      "bia": 4106,
      "Ġregime": 4107,
      "ĠEstad": 4108,
      "Ġcountries": 4109,
      "Ġacess": 4110,
      "hares": 4111,
      "Ġmortos": 4112,
      "Ġmorreu": 4113,
      "ĠcomeÃ§a": 4114,
      "Ġjudicial": 4115,
      "eraÃ§Ãµes": 4116,
      "berto": 4117,
      "ancel": 4118,
      "Ġvit": 4119,
      "ight": 4120,
      "Ġdirig": 4121,
      "let": 4122,
      "ĠautorizaÃ§Ã£o": 4123,
      "parÃªncia": 4124,
      "Ġconflito": 4125,
      "BLIC": 4126,
      "fizer": 4127,
      "BGE": 4128,
      "Ġreclam": 4129,
      "ĠdireÃ§Ã£o": 4130,
      "ĠreferÃªncia": 4131,
      "ĠÃŃndice": 4132,
      "ĠAssociaÃ§Ã£o": 4133,
      "ert": 4134,
      "Ġmenc": 4135,
      "Ġperceb": 4136,
      "ĠeconÃ´mico": 4137,
      "Ġall": 4138,
      "Ġabertura": 4139,
      "Ġestudantes": 4140,
      "Ġexplicou": 4141,
      "ĠGeral": 4142,
      "ĠimÃ³": 4143,
      "Ġcateg": 4144,
      "14": 4145,
      "Ġplanos": 4146,
      "ĠPSDB": 4147,
      "Ġeventos": 4148,
      "ĠGabri": 4149,
      "ĠavanÃ§o": 4150,
      "Ġquerem": 4151,
      "Ġmelhores": 4152,
      "IDADE": 4153,
      "Ġoferta": 4154,
      "Desde": 4155,
      "Ġexpecta": 4156,
      "egra": 4157,
      "ĠclÃŃn": 4158,
      "Ġemendas": 4159,
      "Ġdiretamente": 4160,
      "Ġinsta": 4161,
      "ĠExecutivo": 4162,
      "tugu": 4163,
      "Ar": 4164,
      "Ġpers": 4165,
      "Ġeventual": 4166,
      "LO": 4167,
      "Ex": 4168,
      "ĠprÃ³xima": 4169,
      "line": 4170,
      "nia": 4171,
      "Ãµe": 4172,
      "Ġexterior": 4173,
      "Ġextre": 4174,
      "ĠatravÃ©s": 4175,
      "ĠPen": 4176,
      "Ġone": 4177,
      "Ġesco": 4178,
      "Ġprotocol": 4179,
      "Ġperfil": 4180,
      "ĠindÃºstria": 4181,
      "Ġ197": 4182,
      "ator": 4183,
      "erna": 4184,
      "ĠEsta": 4185,
      "ĠRodrigo": 4186,
      "Ġconjunto": 4187,
      "Ġexecut": 4188,
      "ĠNeto": 4189,
      "Ġcobertura": 4190,
      "Ġpsic": 4191,
      "ĠusuÃ¡rios": 4192,
      "ĠPazuello": 4193,
      "Ġcerto": 4194,
      "ated": 4195,
      "ĠHen": 4196,
      "ĠAtÃ©": 4197,
      "ĠAna": 4198,
      "AN": 4199,
      "Ġrealmente": 4200,
      "Ġmedicamentos": 4201,
      "ĠocorrÃªncia": 4202,
      "Ġviu": 4203,
      "ĠCarvalho": 4204,
      "Esse": 4205,
      "ond": 4206,
      "ĠresponsÃ¡veis": 4207,
      "Ġseriam": 4208,
      "candidato": 4209,
      "ĠversÃ£o": 4210,
      "25": 4211,
      "Ġx": 4212,
      "Ã¡cia": 4213,
      "Ġpresente": 4214,
      "Ġ80": 4215,
      "At": 4216,
      "Ġcontratos": 4217,
      "ÃŃram": 4218,
      "utin": 4219,
      "ĠUnivers": 4220,
      "ĠWhat": 4221,
      "rimento": 4222,
      "esp": 4223,
      "Ġdocument": 4224,
      "Ġprofissional": 4225,
      "Ġ@": 4226,
      "ĠBrasileiro": 4227,
      "Ġmarca": 4228,
      "Ġacho": 4229,
      "Ġpedidos": 4230,
      "ĠEsp": 4231,
      "Ġlivre": 4232,
      "ris": 4233,
      "ĠdiferenÃ§a": 4234,
      "Ġmetade": 4235,
      "Ã©is": 4236,
      "Ġdono": 4237,
      "ĠrealizaÃ§Ã£o": 4238,
      "Ġcontex": 4239,
      "Ġ35": 4240,
      "AR": 4241,
      "rog": 4242,
      "Ġouro": 4243,
      "Ġfundamental": 4244,
      "TambÃ©m": 4245,
      "hor": 4246,
      "Ġade": 4247,
      "Ġthan": 4248,
      "Ġaplicativo": 4249,
      "13": 4250,
      "obre": 4251,
      "mete": 4252,
      "ania": 4253,
      "ordeste": 4254,
      "Ġmargem": 4255,
      "Ġencontrar": 4256,
      "Ġefeitos": 4257,
      "ĠFo": 4258,
      "Ġsenhor": 4259,
      "Ġclientes": 4260,
      "Ġpud": 4261,
      "Ã©rgio": 4262,
      "Ġleva": 4263,
      "Ġcelular": 4264,
      "Ġpassaram": 4265,
      "che": 4266,
      "ĠFranÃ§a": 4267,
      "Ġnossos": 4268,
      "Ġrealizado": 4269,
      "Ġvira": 4270,
      "ĠMor": 4271,
      "Ġtentou": 4272,
      "ĠCe": 4273,
      "urg": 4274,
      "ĠImagem": 4275,
      "BLICIDADE": 4276,
      "Ġsaiu": 4277,
      "Ġentidade": 4278,
      "Ġpolit": 4279,
      "Ġpotencial": 4280,
      "Ġmelho": 4281,
      "Ġsei": 4282,
      "ĠReuters": 4283,
      "ĠPfizer": 4284,
      "gueira": 4285,
      "ĠSouza": 4286,
      "ĠFamÃŃlia": 4287,
      "Ġhip": 4288,
      "Ġvereador": 4289,
      "Ġson": 4290,
      "Ġrele": 4291,
      "utar": 4292,
      "Ġabrir": 4293,
      "Ġcriminal": 4294,
      "ĠauxÃŃlio": 4295,
      "govern": 4296,
      "Ġpert": 4297,
      "Ġexplora": 4298,
      "Ġviagem": 4299,
      "ĠQ": 4300,
      "rent": 4301,
      "cul": 4302,
      "form": 4303,
      "Ġcompleta": 4304,
      "Ġnor": 4305,
      "Ã©tica": 4306,
      "Ġintens": 4307,
      "usou": 4308,
      "Ġqueria": 4309,
      "rida": 4310,
      "velmente": 4311,
      "ĠHum": 4312,
      "Ġaument": 4313,
      "ĠDeputados": 4314,
      "Ġend": 4315,
      "ĠTur": 4316,
      "abora": 4317,
      "Ġassist": 4318,
      "Ġincent": 4319,
      "Ġclara": 4320,
      "ĠoperaÃ§Ãµes": 4321,
      "ĠdenÃºncias": 4322,
      "Ġdelegado": 4323,
      "Ġbio": 4324,
      "Ġagress": 4325,
      "Ġrol": 4326,
      "ĠGetty": 4327,
      "raestrutura": 4328,
      "urou": 4329,
      "Ġvive": 4330,
      "ionar": 4331,
      "Ġveio": 4332,
      "itantes": 4333,
      "Ġtenham": 4334,
      "Ġfigu": 4335,
      "Ġcompartilh": 4336,
      "nab": 4337,
      "erap": 4338,
      "Ġmotivo": 4339,
      "ish": 4340,
      "ĠFunai": 4341,
      "ĠGoverno": 4342,
      "ĠpreocupaÃ§Ã£o": 4343,
      "Ġaparece": 4344,
      "Ġnovamente": 4345,
      "pecial": 4346,
      "Ġdomic": 4347,
      "Ġdetalhes": 4348,
      "Ġcontam": 4349,
      "Ġbrasileiras": 4350,
      "Ġcustos": 4351,
      "Ġdit": 4352,
      "Ġcomando": 4353,
      "ĠBiden": 4354,
      "ĠavanÃ§": 4355,
      "ĠprevÃª": 4356,
      "ĠtÃŃt": 4357,
      "irem": 4358,
      "tivo": 4359,
      "olh": 4360,
      "Ġdesf": 4361,
      "Ġentrada": 4362,
      "ilizar": 4363,
      "Ġsc": 4364,
      "Ġracismo": 4365,
      "Ġaberta": 4366,
      "Ġsi": 4367,
      "Ġespecialista": 4368,
      "Ġtenta": 4369,
      "Ġfront": 4370,
      "elos": 4371,
      "Ġesfor": 4372,
      "ĠRoc": 4373,
      "Ġprogramas": 4374,
      "itada": 4375,
      "Ġenv": 4376,
      "Ġtivesse": 4377,
      "Ġparecer": 4378,
      "Ġimuniz": 4379,
      "Ġbairro": 4380,
      "adura": 4381,
      "Ġseg": 4382,
      "Ġfraude": 4383,
      "ices": 4384,
      "Ġgabinete": 4385,
      "ĠRenan": 4386,
      "ĠvisÃ£o": 4387,
      "Ġpoucos": 4388,
      "uldades": 4389,
      "Ġfacil": 4390,
      "Ġconvoc": 4391,
      "Ġsignific": 4392,
      "Ġbaixo": 4393,
      "Ã©rcio": 4394,
      "Ġtam": 4395,
      "ĠAz": 4396,
      "Ġ2013": 4397,
      "Ġnegou": 4398,
      "etros": 4399,
      "Ġpesquisador": 4400,
      "ink": 4401,
      "atÃ³rios": 4402,
      "Ġmudou": 4403,
      "Ġesteve": 4404,
      "Ġbra": 4405,
      "Ġhuman": 4406,
      "atina": 4407,
      "Ġwill": 4408,
      "PA": 4409,
      "Ġeleitorais": 4410,
      "Ġentrevist": 4411,
      "Ġdisseram": 4412,
      "Ġ33": 4413,
      "ĠameaÃ§as": 4414,
      "orl": 4415,
      "Ġger": 4416,
      "Ġatribu": 4417,
      "eza": 4418,
      "ĠcondiÃ§Ã£o": 4419,
      "right": 4420,
      "issÃµes": 4421,
      "ĠSÃ³": 4422,
      "ipl": 4423,
      "ĠPort": 4424,
      "Ġsuposta": 4425,
      "App": 4426,
      "Ġcuid": 4427,
      "Ġluz": 4428,
      "Ġher": 4429,
      "ĠRes": 4430,
      "Ġfogo": 4431,
      "Ġaberto": 4432,
      "Ġdefendeu": 4433,
      "Ġcomercial": 4434,
      "adamente": 4435,
      "Ġtirar": 4436,
      "Ġess": 4437,
      "Ġjogo": 4438,
      "ĠexperiÃªncia": 4439,
      "ĠCruz": 4440,
      "formaÃ§Ã£o": 4441,
      "bre": 4442,
      "ĠCab": 4443,
      "ĠcrÃ©dito": 4444,
      "Ġcountry": 4445,
      "Ġdesm": 4446,
      "ixo": 4447,
      "ities": 4448,
      "ĠIBGE": 4449,
      "ĠInÃ¡cio": 4450,
      "ĠÃŃnt": 4451,
      "ĠdistribuiÃ§Ã£o": 4452,
      "Ġfamiliares": 4453,
      "Ġpretende": 4454,
      "Ġsucesso": 4455,
      "Ġsustent": 4456,
      "emia": 4457,
      "ntem": 4458,
      "ĠsessÃ£o": 4459,
      "Ġvar": 4460,
      "ĠMato": 4461,
      "Ġportanto": 4462,
      "Folhapress": 4463,
      "Ġsul": 4464,
      "ĠNunes": 4465,
      "ĠformaÃ§Ã£o": 4466,
      "Ġobras": 4467,
      "Ġamericano": 4468,
      "Ġorigem": 4469,
      "ĠTal": 4470,
      "med": 4471,
      "ĠpoderÃ¡": 4472,
      "Ġchamou": 4473,
      "Ġ90": 4474,
      "Geral": 4475,
      "ĠPesso": 4476,
      "ĠSÃ©rgio": 4477,
      "Ġmilhares": 4478,
      "ĠrÃ¡p": 4479,
      "Ġimpres": 4480,
      "ĠprincÃŃp": 4481,
      "ĠfunÃ§Ã£o": 4482,
      "Ġbaix": 4483,
      "ariamente": 4484,
      "Ġhaver": 4485,
      "utenÃ§Ã£o": 4486,
      "Ġretorno": 4487,
      "ĠPUBLICIDADE": 4488,
      "Ġsil": 4489,
      "blo": 4490,
      "Ġwo": 4491,
      "TO": 4492,
      "Ġparticular": 4493,
      "Ġassessoria": 4494,
      "ĠMu": 4495,
      "ĠAlem": 4496,
      "Ġaprovado": 4497,
      "Lula": 4498,
      "izadas": 4499,
      "ĠMus": 4500,
      "Ġport": 4501,
      "Ġpatam": 4502,
      "Ġindica": 4503,
      "orld": 4504,
      "rad": 4505,
      "ustamente": 4506,
      "Ġfake": 4507,
      "ĠPutin": 4508,
      "ĠCan": 4509,
      "conc": 4510,
      "ĠimportÃ¢ncia": 4511,
      "ĠreeleiÃ§Ã£o": 4512,
      "Ġsuficiente": 4513,
      "ĠÃºltimas": 4514,
      "ror": 4515,
      "US": 4516,
      "ce": 4517,
      "omas": 4518,
      "Ġmarido": 4519,
      "Ġreportagens": 4520,
      "icl": 4521,
      "Ġrealizar": 4522,
      "Ġsurg": 4523,
      "Ġimpostos": 4524,
      "Ġfornec": 4525,
      "Ġcolabora": 4526,
      "ĠdivulgaÃ§Ã£o": 4527,
      "Ġbolsonarista": 4528,
      "ĠFlÃ¡vio": 4529,
      "ĠGil": 4530,
      "low": 4531,
      "Ġkm": 4532,
      "ĠsÃ©culo": 4533,
      "ĠelÃ©tr": 4534,
      "Ġagenda": 4535,
      "ĠSilv": 4536,
      "ĠmÃ£os": 4537,
      "dora": 4538,
      "ĠCearÃ¡": 4539,
      "Ġvotar": 4540,
      "Ġfem": 4541,
      "Ġfalando": 4542,
      "sApp": 4543,
      "Ġpropag": 4544,
      "Ġtelefone": 4545,
      "Ass": 4546,
      "ĠhistÃ³rico": 4547,
      "ĠinvasÃ£o": 4548,
      "Ġfase": 4549,
      "Ġlhe": 4550,
      "Ġalso": 4551,
      "essores": 4552,
      "Ġcho": 4553,
      "ĠCorte": 4554,
      "ĠJudic": 4555,
      "Ġaudit": 4556,
      "ĠrelaÃ§Ãµes": 4557,
      "elegram": 4558,
      "Ãºn": 4559,
      "iÃªncias": 4560,
      "ĠexpressÃ£o": 4561,
      "ĠJato": 4562,
      "ĠPular": 4563,
      "ĠVer": 4564,
      "Ġfab": 4565,
      "Ġarrec": 4566,
      "Ġrecebe": 4567,
      "Ġacc": 4568,
      "Ġdecor": 4569,
      "En": 4570,
      "Ãºc": 4571,
      "Ã§ou": 4572,
      "Ġinstituto": 4573,
      "Ã³gica": 4574,
      "Ġba": 4575,
      "isl": 4576,
      "Ġjustific": 4577,
      "iros": 4578,
      "Ġseguida": 4579,
      "essem": 4580,
      "ĠArgentina": 4581,
      "Ġhistor": 4582,
      "Ġfui": 4583,
      "ĠAmazonas": 4584,
      "Ġequival": 4585,
      "Ġparticipou": 4586,
      "bro": 4587,
      "ph": 4588,
      "esto": 4589,
      "ĠPart": 4590,
      "ficos": 4591,
      "Ġrepresentantes": 4592,
      "ĠSergio": 4593,
      "here": 4594,
      "Ġpaciente": 4595,
      "ĠprevisÃ£o": 4596,
      "Ġcomunidades": 4597,
      "Ġmodo": 4598,
      "Ġpodemos": 4599,
      "Ġconced": 4600,
      "Ġge": 4601,
      "Ġban": 4602,
      "age": 4603,
      "Ġbuscar": 4604,
      "Ġoficiais": 4605,
      "ĠMont": 4606,
      "ĠRede": 4607,
      "Ġdesemp": 4608,
      "Ġwould": 4609,
      "Ġinteresses": 4610,
      "Procura": 4611,
      "Ġparticipar": 4612,
      "Ġenviou": 4613,
      "ĠalimentaÃ§Ã£o": 4614,
      "ife": 4615,
      "Ġpermite": 4616,
      "Ġbancos": 4617,
      "Ġfloresta": 4618,
      "ĠirmÃ£o": 4619,
      "Ġbot": 4620,
      "ĠTelegram": 4621,
      "ĠIta": 4622,
      "ĠmÃŃd": 4623,
      "hou": 4624,
      "Ġesto": 4625,
      "ĠMunic": 4626,
      "ĠpresidÃªncia": 4627,
      "TI": 4628,
      "ĠTer": 4629,
      "ĠindivÃŃdu": 4630,
      "Ġcred": 4631,
      "enÃ§Ãµes": 4632,
      "Ġ2010": 4633,
      "utor": 4634,
      "Ġregra": 4635,
      "ĠmanutenÃ§Ã£o": 4636,
      "tudo": 4637,
      "ĠMich": 4638,
      "Ġchegaram": 4639,
      "ĠirÃ¡": 4640,
      "Ġganhou": 4641,
      "Ã¡fico": 4642,
      "Ġdeixa": 4643,
      "Ġimportantes": 4644,
      "seguranÃ§a": 4645,
      "Ġmundial": 4646,
      "ĠFab": 4647,
      "Ġamigo": 4648,
      "Ġcarreira": 4649,
      "Ġciv": 4650,
      "Ġteriam": 4651,
      "CU": 4652,
      "Ġup": 4653,
      "ĠVi": 4654,
      "ĠSen": 4655,
      "Ġresponder": 4656,
      "ĠPresidente": 4657,
      "ĠApÃ³s": 4658,
      "Ġfarm": 4659,
      "Ġpovos": 4660,
      "tais": 4661,
      "ĠVocÃª": 4662,
      "Ġtotalmente": 4663,
      "Ġtime": 4664,
      "ĠNogueira": 4665,
      "ĠempresÃ¡rios": 4666,
      "Ġperder": 4667,
      "embleia": 4668,
      "Ġlembra": 4669,
      "Ġprejudic": 4670,
      "ĠcomeÃ§ar": 4671,
      "Ġsetores": 4672,
      "Ġiniciativa": 4673,
      "Ġcerta": 4674,
      "Ġdesigual": 4675,
      "ĠNordeste": 4676,
      "Ġbusc": 4677,
      "Ġgovernment": 4678,
      "Ġmenina": 4679,
      "ĠSocial": 4680,
      "Ġregistrado": 4681,
      "Ġfaixa": 4682,
      "Ġtratar": 4683,
      "Ġesquema": 4684,
      "23": 4685,
      "Ġnaz": 4686,
      "Ġcorrespo": 4687,
      "ĠOp": 4688,
      "Ġsuger": 4689,
      "Ġconfirmou": 4690,
      "Ġeleitores": 4691,
      "Ġfatores": 4692,
      "PSD": 4693,
      "Depois": 4694,
      "Foi": 4695,
      "ĠplenÃ¡rio": 4696,
      "Ġpublicou": 4697,
      "ĠDist": 4698,
      "erno": 4699,
      "].": 4700,
      "Ġconsul": 4701,
      "ĠGabriel": 4702,
      "Ġviz": 4703,
      "Ġindividual": 4704,
      "MA": 4705,
      "gada": 4706,
      "Ġsac": 4707,
      "Ġrevista": 4708,
      "ĠDias": 4709,
      "ÃŃss": 4710,
      "afa": 4711,
      "Ġexpress": 4712,
      "Ġfraud": 4713,
      "ĠAlemanha": 4714,
      "aldo": 4715,
      "ĠMou": 4716,
      "Ġjustamente": 4717,
      "Ġacha": 4718,
      "Ġtempera": 4719,
      "Ġprofessora": 4720,
      "ĠnotÃŃcia": 4721,
      "Ġequipamentos": 4722,
      "Ġapreend": 4723,
      "aqu": 4724,
      "ĠciÃªncia": 4725,
      "istema": 4726,
      "rita": 4727,
      "ublicidade": 4728,
      "ĠWhatsApp": 4729,
      "Ġtri": 4730,
      "ames": 4731,
      "lagra": 4732,
      "Ġprocedimentos": 4733,
      "ĠnegÃ³cios": 4734,
      "cre": 4735,
      "orge": 4736,
      "Ġmad": 4737,
      "nce": 4738,
      "Ġreserva": 4739,
      "esses": 4740,
      "ĠMart": 4741,
      "Ã¡logo": 4742,
      "Ġestiv": 4743,
      "Ġposse": 4744,
      "Ġ45": 4745,
      "Ġconclus": 4746,
      "ĠorientaÃ§Ã£o": 4747,
      "ĠcomeÃ§aram": 4748,
      "Ġcima": 4749,
      "ĠMarcos": 4750,
      "Ġcaiu": 4751,
      "ĠProcura": 4752,
      "ureza": 4753,
      "Ġgolp": 4754,
      "Ġtrecho": 4755,
      "TA": 4756,
      "Ġtermin": 4757,
      "Ġadequ": 4758,
      "envolvimento": 4759,
      "volver": 4760,
      "Ġestaduais": 4761,
      "ting": 4762,
      "Ġemail": 4763,
      "Ġcompl": 4764,
      "Ġsat": 4765,
      "Ġfras": 4766,
      "ĠÃ´": 4767,
      "Ġabando": 4768,
      "olÃ³gica": 4769,
      "ĠdÃŃvida": 4770,
      "ĠSilveira": 4771,
      "Ġsepara": 4772,
      "Ġpossui": 4773,
      "ĠapuraÃ§Ã£o": 4774,
      "Ġpalavra": 4775,
      "29": 4776,
      "rente": 4777,
      "Ãºjo": 4778,
      "Ġficaram": 4779,
      "iscos": 4780,
      "Ġsigilo": 4781,
      "ĠPIB": 4782,
      "uls": 4783,
      "ĠAlves": 4784,
      "Ġatender": 4785,
      "Ġfamiliar": 4786,
      "frica": 4787,
      "ĠMat": 4788,
      "ĠMund": 4789,
      "estar": 4790,
      "ĠIC": 4791,
      "ĠLegisl": 4792,
      "Ġderro": 4793,
      "Ġpalavras": 4794,
      "zinho": 4795,
      "Ġcarne": 4796,
      "26": 4797,
      "Ġassoc": 4798,
      "Ġenvolvendo": 4799,
      "Pa": 4800,
      "bas": 4801,
      "ki": 4802,
      "ĠgeraÃ§Ã£o": 4803,
      "igÃªncia": 4804,
      "Ġconvid": 4805,
      "Ġdesempre": 4806,
      "Ġcla": 4807,
      "Ġrend": 4808,
      "Ġusada": 4809,
      "Ã´nica": 4810,
      "Ġcapaz": 4811,
      "Ġsala": 4812,
      "OS": 4813,
      "Ġpoderiam": 4814,
      "ĠReino": 4815,
      "rosso": 4816,
      "Ġenf": 4817,
      "ilÃ¢ncia": 4818,
      "Ġapos": 4819,
      "ĠJudiciÃ¡rio": 4820,
      "Ġover": 4821,
      "Ġregular": 4822,
      "Ġdificuldades": 4823,
      "ises": 4824,
      "ĠgÃªn": 4825,
      "Ġaquele": 4826,
      "Ġdura": 4827,
      "ose": 4828,
      "Ġfol": 4829,
      "Ãºp": 4830,
      "ĠÃ³b": 4831,
      "Ġvant": 4832,
      "ĠIt": 4833,
      "Ġmoral": 4834,
      "ilar": 4835,
      "ĠLeite": 4836,
      "ĠFel": 4837,
      "ÃŃsticas": 4838,
      "ĠEurope": 4839,
      "An": 4840,
      "Ġmem": 4841,
      "alo": 4842,
      "ĠTrans": 4843,
      "Ġpropostas": 4844,
      "ĠÃ¢": 4845,
      "Ġ2012": 4846,
      "met": 4847,
      "wo": 4848,
      "ertas": 4849,
      "ĠanÃº": 4850,
      "Ġrom": 4851,
      "posa": 4852,
      "Ġfinanceiro": 4853,
      "Ġigual": 4854,
      "Ġother": 4855,
      "ÃŃa": 4856,
      "ĠPC": 4857,
      "itÃ¡rios": 4858,
      "tamentos": 4859,
      "Ġquadro": 4860,
      "Ġminutos": 4861,
      "Ġcomunicado": 4862,
      "ĠONU": 4863,
      "Ġperdeu": 4864,
      "Ġale": 4865,
      "Ġprotes": 4866,
      "Ġafas": 4867,
      "Ġcass": 4868,
      "erem": 4869,
      "Ã§am": 4870,
      "ĠAraÃºjo": 4871,
      "ĠepisÃ³dio": 4872,
      "Pod": 4873,
      "ogra": 4874,
      "Ġarrecad": 4875,
      "Ġcomet": 4876,
      "ĠPrec": 4877,
      "Ġrecentemente": 4878,
      "ĠÃģfrica": 4879,
      "Ġpobreza": 4880,
      "uar": 4881,
      "ĠDon": 4882,
      "Ġpermitir": 4883,
      "ĠIgreja": 4884,
      "Ġextrema": 4885,
      "Ġentrega": 4886,
      "Ġdivulgado": 4887,
      "tre": 4888,
      "ĠYork": 4889,
      "ĠvocÃªs": 4890,
      "americ": 4891,
      "mail": 4892,
      "ĠDE": 4893,
      "ĠfÃ¡c": 4894,
      "istÃ£o": 4895,
      "Ġagro": 4896,
      "ĠcomeÃ§o": 4897,
      "Ġzona": 4898,
      "Ġabout": 4899,
      "Ġrural": 4900,
      "Quem": 4901,
      "Ġhaviam": 4902,
      "Ġterceiro": 4903,
      "Ġcomportamento": 4904,
      "Ġmagist": 4905,
      "Ġprotestos": 4906,
      "Ġord": 4907,
      "ĠprejuÃŃ": 4908,
      "Ġtransfer": 4909,
      "Ġrot": 4910,
      "Ġvender": 4911,
      "Ġganhar": 4912,
      "Ġantecip": 4913,
      "Ġditadura": 4914,
      "'t": 4915,
      "Durante": 4916,
      "feitura": 4917,
      "rido": 4918,
      "Ġdecreto": 4919,
      "Ġdescont": 4920,
      "Ġafirmam": 4921,
      "Ġcoordenador": 4922,
      "Ġdipl": 4923,
      "Ġvolume": 4924,
      "Ġsuspeita": 4925,
      "uxÃŃlio": 4926,
      "Ġvagas": 4927,
      "ĠDel": 4928,
      "Ġinvad": 4929,
      "ganizaÃ§Ã£o": 4930,
      "Ġestup": 4931,
      "Ġtestem": 4932,
      "Ġfug": 4933,
      "Ġbr": 4934,
      "Ġentidades": 4935,
      "olÃ³gico": 4936,
      "ĠnegÃ³cio": 4937,
      "GR": 4938,
      "ws": 4939,
      "Ġhosp": 4940,
      "ĠadministraÃ§Ã£o": 4941,
      "nabis": 4942,
      "Ã©u": 4943,
      "ÃŃtica": 4944,
      "ĠdeclaraÃ§Ã£o": 4945,
      "rÃŃc": 4946,
      "Ġcomem": 4947,
      "ĠCovax": 4948,
      "Ġdestaca": 4949,
      "ĠediÃ§Ã£o": 4950,
      "Ġnegocia": 4951,
      "Ġadolescentes": 4952,
      "BA": 4953,
      "ĠpossÃŃveis": 4954,
      "Ã³rter": 4955,
      "Ġexistem": 4956,
      "Ġpropried": 4957,
      "ĠalcanÃ§": 4958,
      "dire": 4959,
      "Ġfontes": 4960,
      "egÃ³": 4961,
      "ĠPorto": 4962,
      "ĠprivatizaÃ§Ã£o": 4963,
      "Ġgo": 4964,
      "ĠFach": 4965,
      "ĠHel": 4966,
      "Ã¡lia": 4967,
      "Ġganha": 4968,
      "Ġdiplom": 4969,
      "Ġalem": 4970,
      "Ġsobretudo": 4971,
      "ept": 4972,
      "Ġparceria": 4973,
      "Ġnossas": 4974,
      "Ġministra": 4975,
      "eropor": 4976,
      "ĠAng": 4977,
      "ĠacusaÃ§Ãµes": 4978,
      "nÃ§as": 4979,
      "ĠGoi": 4980,
      "Ġsobrev": 4981,
      "Ġdificuldade": 4982,
      "Ġmec": 4983,
      "ivar": 4984,
      "Ġcasal": 4985,
      "ĠDesenvolvimento": 4986,
      "Ġcontexto": 4987,
      "zinha": 4988,
      "ĠGen": 4989,
      "Ġficam": 4990,
      "enadora": 4991,
      "Ġdespesas": 4992,
      "Ġpratic": 4993,
      "Ġplanej": 4994,
      "lÃªs": 4995,
      "ĠpÃ³s": 4996,
      "Ġfeitos": 4997,
      "ĠMÃ¡r": 4998,
      "Ġartic": 4999,
      "ĠInternacional": 5000,
      "governador": 5001,
      "Ġrap": 5002,
      "Ġrecebido": 5003,
      "Ġuniversidade": 5004,
      "Ġdeputada": 5005,
      "Ġcerteza": 5006,
      "ĠRocha": 5007,
      "Ġabus": 5008,
      "Ġ48": 5009,
      "ĠdeclaraÃ§Ãµes": 5010,
      "ĠinfluÃªncia": 5011,
      "ĠTrabalho": 5012,
      "ĠvitÃ³ria": 5013,
      "BO": 5014,
      "Ġlog": 5015,
      "ĠQuem": 5016,
      "Ã£es": 5017,
      "Ġmorto": 5018,
      "ĠtrÃ¡fico": 5019,
      "Ġelabora": 5020,
      "ianos": 5021,
      "cion": 5022,
      "Ġmus": 5023,
      "ucran": 5024,
      "Ġultra": 5025,
      "Ad": 5026,
      "tem": 5027,
      "elha": 5028,
      "Ġprofessores": 5029,
      "ashing": 5030,
      "ĠinseguranÃ§a": 5031,
      "Ġconduz": 5032,
      "Ġtornar": 5033,
      "Ġexa": 5034,
      "Ġocorrer": 5035,
      "Ġdivulgada": 5036,
      "Ġlimite": 5037,
      "itiva": 5038,
      "Ġhon": 5039,
      "Ġdese": 5040,
      "Ġ34": 5041,
      "iba": 5042,
      "ĠUnido": 5043,
      "ĠDesde": 5044,
      "ĠMedic": 5045,
      "vent": 5046,
      "Ġcompre": 5047,
      "Ġconsegue": 5048,
      "Ġsuspeito": 5049,
      "ue": 5050,
      "Ġemit": 5051,
      "ĠaplicaÃ§Ã£o": 5052,
      "Ġprivada": 5053,
      "ĠfiscalizaÃ§Ã£o": 5054,
      "Ġdanos": 5055,
      "Ġriscos": 5056,
      "ket": 5057,
      "icÃŃdio": 5058,
      "ĠAug": 5059,
      "PE": 5060,
      "ĠPR": 5061,
      "Ġelem": 5062,
      "iane": 5063,
      "Ġbolsonaristas": 5064,
      "ĠinglÃªs": 5065,
      "ĠeficÃ¡cia": 5066,
      "iÃ¡rios": 5067,
      "Ġfur": 5068,
      "rol": 5069,
      "ĠAinda": 5070,
      "Ġbomb": 5071,
      "ontade": 5072,
      "Ġinterpre": 5073,
      "Ġregistrou": 5074,
      "ĠbenefÃŃcio": 5075,
      "vis": 5076,
      "Ġpubl": 5077,
      "Ġpede": 5078,
      "Ġidos": 5079,
      "isf": 5080,
      "Ġtira": 5081,
      "Ġdirec": 5082,
      "ĠPaulista": 5083,
      "LEIA": 5084,
      "05": 5085,
      "BT": 5086,
      "Ġucran": 5087,
      "ĠMira": 5088,
      "essas": 5089,
      "ĠHospital": 5090,
      "Ġassumir": 5091,
      "Ġcach": 5092,
      "Ġcomida": 5093,
      "ĠprÃ³prios": 5094,
      "ĠsoluÃ§Ã£o": 5095,
      "Ġportugu": 5096,
      "Ġfazia": 5097,
      "pla": 5098,
      "Ġproje": 5099,
      "ĠGo": 5100,
      "ustrial": 5101,
      "edores": 5102,
      "Ġacel": 5103,
      "ĠHe": 5104,
      "untos": 5105,
      "Ġnatureza": 5106,
      "ĠDia": 5107,
      "rupo": 5108,
      "Ġposta": 5109,
      "ĠexistÃªncia": 5110,
      "Ġuniversidades": 5111,
      "ike": 5112,
      "ĠPra": 5113,
      "ĠsituaÃ§Ãµes": 5114,
      "Ġassinantes": 5115,
      "iador": 5116,
      "venÃ§Ã£o": 5117,
      "ĠParÃ¡": 5118,
      "Ġpersegu": 5119,
      "Ġmovimentos": 5120,
      "Ġdesenvolv": 5121,
      "Ãĥ": 5122,
      "idamente": 5123,
      "ĠNÃ³s": 5124,
      "ĠCamp": 5125,
      "Ġambos": 5126,
      "Ġproteger": 5127,
      "Ġtamanho": 5128,
      "eceu": 5129,
      "ĠData": 5130,
      "ugal": 5131,
      "Ã³dios": 5132,
      "ĠcombustÃŃvel": 5133,
      "24": 5134,
      "PDT": 5135,
      "Ġcomm": 5136,
      "ÃŃamos": 5137,
      "ĠGe": 5138,
      "Ġmorre": 5139,
      "2022": 5140,
      "ĠMarques": 5141,
      "Ġmatar": 5142,
      "ustavo": 5143,
      "Ġpatamar": 5144,
      "%).": 5145,
      "ĠCast": 5146,
      "pect": 5147,
      "orias": 5148,
      "ĠAuxÃŃlio": 5149,
      "Ġdesemb": 5150,
      "ficial": 5151,
      "Ġadmit": 5152,
      "Ġoriginal": 5153,
      "Ġrequ": 5154,
      "ĠGrosso": 5155,
      "Ã¢ndia": 5156,
      "Ġinstrum": 5157,
      "Ġboletim": 5158,
      "ĠRel": 5159,
      "ĠDav": 5160,
      "Ġ500": 5161,
      "ĠtendÃªncia": 5162,
      "Ġrever": 5163,
      "ĠBC": 5164,
      "Ġmeus": 5165,
      "ĠFundaÃ§Ã£o": 5166,
      "ĠCatar": 5167,
      "lim": 5168,
      "Cons": 5169,
      "AS": 5170,
      "Ġcompletou": 5171,
      "candid": 5172,
      "egÃ³cio": 5173,
      "Eles": 5174,
      "ulada": 5175,
      "Ġclasse": 5176,
      "Ġgraves": 5177,
      "Ã§ada": 5178,
      "ĠComp": 5179,
      "Ġpercentuais": 5180,
      "ilson": 5181,
      "Ġiria": 5182,
      "Ġlucro": 5183,
      "ilidades": 5184,
      "ender": 5185,
      "Ġcomplex": 5186,
      "Ġtalvez": 5187,
      "ĠTemer": 5188,
      "Ġpaga": 5189,
      "ĠJul": 5190,
      "Ġlabora": 5191,
      "ĠCur": 5192,
      "ĠLatina": 5193,
      "itude": 5194,
      "?\",": 5195,
      "Ã§ado": 5196,
      "ĠprÃ©dio": 5197,
      "Ġadvogados": 5198,
      "ĠYou": 5199,
      "Ġchance": 5200,
      "Ġnegros": 5201,
      "mina": 5202,
      "Ġpresos": 5203,
      "Ġreperc": 5204,
      "ĠAssim": 5205,
      "Ġmenores": 5206,
      "Ġjornalistas": 5207,
      "ÃĥO": 5208,
      "Ġia": 5209,
      "Ġinfect": 5210,
      "ornal": 5211,
      "ĠFachin": 5212,
      "we": 5213,
      "igen": 5214,
      "Ġhaja": 5215,
      "uel": 5216,
      "Ġrevol": 5217,
      "Ġterem": 5218,
      "Ġapresenta": 5219,
      "Ġcade": 5220,
      "ebol": 5221,
      "ĠPablo": 5222,
      "Ġadvers": 5223,
      "Ġprivado": 5224,
      "ain": 5225,
      "Ġ32": 5226,
      "Ã¡lc": 5227,
      "200": 5228,
      "ĠMais": 5229,
      "iolog": 5230,
      "Ġcult": 5231,
      "ÃŃsio": 5232,
      "Ġontem": 5233,
      "AtÃ©": 5234,
      "Hoje": 5235,
      "RE": 5236,
      "ild": 5237,
      "ĠHor": 5238,
      "Ġinclui": 5239,
      "Mesmo": 5240,
      "Sem": 5241,
      "unha": 5242,
      "Ġentra": 5243,
      "Ġmassa": 5244,
      "ronegÃ³cio": 5245,
      "Ġrelev": 5246,
      "ale": 5247,
      "ĠtransmissÃ£o": 5248,
      "Ġpercentual": 5249,
      "DO": 5250,
      "Ġimpedir": 5251,
      "ĠfÃŃsica": 5252,
      "ĠCa": 5253,
      "ĠMag": 5254,
      "Ã´s": 5255,
      "Ġexpectativa": 5256,
      "guns": 5257,
      "Ġconselh": 5258,
      "Ġofens": 5259,
      "Ġ38": 5260,
      "ĠAdria": 5261,
      "Ġtribut": 5262,
      "Ġpopul": 5263,
      "Ġprocurador": 5264,
      "STF": 5265,
      "erada": 5266,
      "ĠdiÃ¡logo": 5267,
      "Ġrecurso": 5268,
      "itados": 5269,
      "ĠDem": 5270,
      "Ġpagamentos": 5271,
      "idadania": 5272,
      "ndere": 5273,
      "Ġrevelou": 5274,
      "Ġreajust": 5275,
      "ashington": 5276,
      "imes": 5277,
      "Ġencontra": 5278,
      "PSL": 5279,
      "ĠCovaxin": 5280,
      "bio": 5281,
      "ij": 5282,
      "ĠdoenÃ§as": 5283,
      "Ġencer": 5284,
      "Ġimposs": 5285,
      "Ġirregularidades": 5286,
      "cor": 5287,
      "estas": 5288,
      "Ġtrabalhos": 5289,
      "Ġitens": 5290,
      "Ġexib": 5291,
      "Ġacad": 5292,
      "into": 5293,
      "Ġincor": 5294,
      "Ġpassando": 5295,
      "Ġusando": 5296,
      "Ġmencion": 5297,
      "bol": 5298,
      "led": 5299,
      "tions": 5300,
      "Ġaulas": 5301,
      "Ġvontade": 5302,
      "izando": 5303,
      "epÃ§Ã£o": 5304,
      "Ġrelatos": 5305,
      "adim": 5306,
      "ĠFaz": 5307,
      "uba": 5308,
      "ĠCop": 5309,
      "Ġwork": 5310,
      "Ġcondenado": 5311,
      "Ġplataformas": 5312,
      "umo": 5313,
      "Ġina": 5314,
      "Ġsubiu": 5315,
      "Ġescolar": 5316,
      "mada": 5317,
      "orme": 5318,
      "Ġcasas": 5319,
      "Ġcargos": 5320,
      "Ġconvenc": 5321,
      "Ġreport": 5322,
      "Ġabriu": 5323,
      "Ġcloroquina": 5324,
      "Ġpossam": 5325,
      "Ġprevisto": 5326,
      "DivulgaÃ§Ã£o": 5327,
      "Ġendere": 5328,
      "ĠcÃ¡lc": 5329,
      "Ġfilme": 5330,
      "Ġinstitucional": 5331,
      "Ġloja": 5332,
      "orro": 5333,
      "ĠSan": 5334,
      "ĠCampos": 5335,
      "taÃ§Ãµes": 5336,
      "Ġ196": 5337,
      "GU": 5338,
      "dia": 5339,
      "mado": 5340,
      "Ãºl": 5341,
      "Ġapontou": 5342,
      "Ġmunicipal": 5343,
      "Ġfemin": 5344,
      "ementar": 5345,
      "Ġ36": 5346,
      "Ġchama": 5347,
      "ĠjustiÃ§a": 5348,
      "ĠMarina": 5349,
      "ler": 5350,
      "Ġrio": 5351,
      "Ġconsc": 5352,
      "Ġpastor": 5353,
      "Ġcolegas": 5354,
      "aso": 5355,
      "Ġtram": 5356,
      "Ġtese": 5357,
      "Ġsabia": 5358,
      "Ġign": 5359,
      "riÃ§Ãµes": 5360,
      "ÃŃdas": 5361,
      "Ġacusado": 5362,
      "ĠdÃ³lar": 5363,
      "quir": 5364,
      "Ġlive": 5365,
      "Ġpublicada": 5366,
      "ĠFilho": 5367,
      "Ġcancel": 5368,
      "isiÃ§Ã£o": 5369,
      "ernamb": 5370,
      "Ġconsiderada": 5371,
      "ĠfÃ¡cil": 5372,
      "Ġcomentar": 5373,
      "Ġoff": 5374,
      "Ġdemit": 5375,
      "Ġcientistas": 5376,
      "van": 5377,
      "guas": 5378,
      "Ġestaria": 5379,
      "Ġentendimento": 5380,
      "Ġgarimp": 5381,
      "iauÃŃ": 5382,
      "Ġescra": 5383,
      "ĠopÃ§Ã£o": 5384,
      "oga": 5385,
      "dical": 5386,
      "ĠtÃ©cnicos": 5387,
      "ĠFerreira": 5388,
      "ĠSam": 5389,
      "preend": 5390,
      "Ġras": 5391,
      "Ġdeath": 5392,
      "Ġinicial": 5393,
      "Ġocorrido": 5394,
      "ĠMichel": 5395,
      "merc": 5396,
      "itÃª": 5397,
      "ĠIb": 5398,
      "ips": 5399,
      "ĠimportaÃ§Ã£o": 5400,
      "Ġadvogada": 5401,
      "ĠPrefeitura": 5402,
      "ĠLuÃŃs": 5403,
      "orou": 5404,
      "ÃŃb": 5405,
      "itivo": 5406,
      "Ġdesab": 5407,
      "Ġabast": 5408,
      "Ġpartid": 5409,
      "ĠLuis": 5410,
      "doria": 5411,
      "ĠCÃ³digo": 5412,
      "Ġtermo": 5413,
      "Ġplac": 5414,
      "ĠconfianÃ§a": 5415,
      "ĠbenefÃŃcios": 5416,
      "CE": 5417,
      "quia": 5418,
      "teve": 5419,
      "Ġvirou": 5420,
      "ĠDistrito": 5421,
      "Ġnove": 5422,
      "Ġexec": 5423,
      "Ġmostrar": 5424,
      "ami": 5425,
      "iliar": 5426,
      "ramente": 5427,
      "Ġconqu": 5428,
      "Ġprevent": 5429,
      "Ġfinanceira": 5430,
      "Do": 5431,
      "ĠBel": 5432,
      "Ġroub": 5433,
      "ĠMundial": 5434,
      "riou": 5435,
      "Ġinvestigar": 5436,
      "Ġrepresentante": 5437,
      "ĠHenrique": 5438,
      "Ġesposa": 5439,
      "Ġpartes": 5440,
      "Ġpensar": 5441,
      "Ġremo": 5442,
      "ĠpolÃªm": 5443,
      "assem": 5444,
      "Ġmanifestantes": 5445,
      "ĠgÃªnero": 5446,
      "ĠUF": 5447,
      "Ġcarros": 5448,
      "Ġcriminosos": 5449,
      "Ġmig": 5450,
      "rimÃ´nio": 5451,
      "Ġcompromisso": 5452,
      "ĠCristina": 5453,
      "use": 5454,
      "ings": 5455,
      "ĠtransparÃªncia": 5456,
      "Ġtestes": 5457,
      "Ġepidem": 5458,
      "ĠMiranda": 5459,
      "ĠMeio": 5460,
      "06": 5461,
      "lud": 5462,
      "ze": 5463,
      "fect": 5464,
      "var": 5465,
      "roup": 5466,
      "Ġ37": 5467,
      "Ġ39": 5468,
      "Ã¢nico": 5469,
      "Ġchapa": 5470,
      "Ġtip": 5471,
      "apa": 5472,
      "ĠÃŃntegra": 5473,
      "rade": 5474,
      "28": 5475,
      "eriores": 5476,
      "ĠtransferÃªncia": 5477,
      "ĠmantÃ©m": 5478,
      "Ġapresentado": 5479,
      "Ġtrabalhando": 5480,
      "AMB": 5481,
      "Ġcadeia": 5482,
      "Ã£s": 5483,
      "Ġcoop": 5484,
      "Ġclima": 5485,
      "ĠquilÃ´m": 5486,
      "TJ": 5487,
      "ĠEletro": 5488,
      "Ġconversas": 5489,
      "ĠAmbiente": 5490,
      "ĠMunicipal": 5491,
      "Ġfranc": 5492,
      "able": 5493,
      "ĠintenÃ§Ãµes": 5494,
      "Ġ44": 5495,
      "ĠapresentaÃ§Ã£o": 5496,
      "Ġrelata": 5497,
      "Ġrelatou": 5498,
      "Ġvariante": 5499,
      "Ġbandeira": 5500,
      "ĠveÃŃculo": 5501,
      "Pol": 5502,
      "VocÃª": 5503,
      "ĠalianÃ§a": 5504,
      "ĠGLO": 5505,
      "Ġthem": 5506,
      "Ġevol": 5507,
      "Ġnegro": 5508,
      "ĠtransiÃ§Ã£o": 5509,
      "Ġchegada": 5510,
      "Ġformal": 5511,
      "ĠFreitas": 5512,
      "ĠTCU": 5513,
      "Ġonline": 5514,
      "Ġaprovada": 5515,
      "Ġdivulgou": 5516,
      "regando": 5517,
      "Ġlonge": 5518,
      "ĠmÃŃdia": 5519,
      "Ãºpula": 5520,
      "Ġrespect": 5521,
      "Ġadministrat": 5522,
      "Ġnormal": 5523,
      "BrasÃŃlia": 5524,
      "addad": 5525,
      "ndro": 5526,
      "eit": 5527,
      "ĠagronegÃ³cio": 5528,
      "Ġaumentou": 5529,
      "Ġmomentos": 5530,
      "Ġvendas": 5531,
      "Ġigreja": 5532,
      "ĠPortugal": 5533,
      "ĠÃ³dio": 5534,
      "Ġbu": 5535,
      "inadas": 5536,
      "etto": 5537,
      "Ġconhecida": 5538,
      "Ġtentando": 5539,
      "Ġcivis": 5540,
      "Ġinaugu": 5541,
      "27": 5542,
      "Ãªut": 5543,
      "Ġanteriores": 5544,
      "Ġconsumidores": 5545,
      "ĠcomÃ©rcio": 5546,
      "omos": 5547,
      "Ġanual": 5548,
      "Ġpossib": 5549,
      "ĠmÃ¡ximo": 5550,
      "uco": 5551,
      "ĠnegociaÃ§Ã£o": 5552,
      "ĠIndÃŃg": 5553,
      "ilton": 5554,
      "Ġinj": 5555,
      "Ġabord": 5556,
      "Ġcriado": 5557,
      "Ġmetros": 5558,
      "ĠFelipe": 5559,
      "ĠfÃ©": 5560,
      "ational": 5561,
      "ĠMesmo": 5562,
      "lear": 5563,
      "ĠRus": 5564,
      "Ġcriticou": 5565,
      "Nas": 5566,
      "amais": 5567,
      "Ġgerar": 5568,
      "Ġprovid": 5569,
      "ĠdemissÃ£o": 5570,
      "ĠCoelho": 5571,
      "ĠDireitos": 5572,
      "ĠRE": 5573,
      "Ġrepass": 5574,
      "Ġcoletiva": 5575,
      "ĠAssembleia": 5576,
      "ĠrecuperaÃ§Ã£o": 5577,
      "ĠQueiroga": 5578,
      "AP": 5579,
      "ĠCrim": 5580,
      "ĠBor": 5581,
      "ederaÃ§Ã£o": 5582,
      "ebet": 5583,
      "ificou": 5584,
      "rÃªncia": 5585,
      "iso": 5586,
      "ĠTor": 5587,
      "Ġcontinue": 5588,
      "ĠhipÃ³": 5589,
      "AB": 5590,
      "ĠComun": 5591,
      "ĠPSB": 5592,
      "Ġdiagn": 5593,
      "endonÃ§a": 5594,
      "Ġindicado": 5595,
      "Ġpraticamente": 5596,
      "ella": 5597,
      "ĠBen": 5598,
      "Ġacord": 5599,
      "arcÃŃsio": 5600,
      "Ġencontrou": 5601,
      "Ġdeterminou": 5602,
      "kra": 5603,
      "Ġdesin": 5604,
      "Ġinvestidores": 5605,
      "Ġescolha": 5606,
      "Ġacontecendo": 5607,
      "quela": 5608,
      "entro": 5609,
      "ĠGustavo": 5610,
      "Ġresg": 5611,
      "iguel": 5612,
      "ĠprÃ³ximas": 5613,
      "Outro": 5614,
      "ÃīM": 5615,
      "Ġparcela": 5616,
      "ĠjuÃŃza": 5617,
      "ĠEletrobras": 5618,
      "ying": 5619,
      "ĠRom": 5620,
      "Ġtemas": 5621,
      "Ġrodo": 5622,
      "Ġenviado": 5623,
      "Ġargumento": 5624,
      "Ġdesempenho": 5625,
      "gon": 5626,
      "ĠSp": 5627,
      "ĠWashington": 5628,
      "ĠQue": 5629,
      "Ġenvolvidos": 5630,
      "ĠevidÃªncias": 5631,
      "NDE": 5632,
      "ĠTAMB": 5633,
      "Ġmensal": 5634,
      "ĠTAMBÃīM": 5635,
      "arem": 5636,
      "Ġpostos": 5637,
      "Ġmeta": 5638,
      "polis": 5639,
      "Ġretirada": 5640,
      "Ġoportunidade": 5641,
      "ĠTebet": 5642,
      "Ġdista": 5643,
      "Ġdissem": 5644,
      "Ġconselho": 5645,
      "Ġpedindo": 5646,
      "Ġaborda": 5647,
      "ousse": 5648,
      "Ġlivros": 5649,
      "ĠCatarina": 5650,
      "ĠAntÃ´nio": 5651,
      "Ġros": 5652,
      "ocr": 5653,
      "PSB": 5654,
      "Ġurb": 5655,
      "ĠjurÃŃdica": 5656,
      "Su": 5657,
      "ĠprÃ¡ticas": 5658,
      "Ġacompanha": 5659,
      "ĠtÃŃtulo": 5660,
      "Ġentrevistados": 5661,
      "ĠGLOBO": 5662,
      "Ġnaquele": 5663,
      "ĠresistÃªncia": 5664,
      "Ġambientais": 5665,
      "fÃ©": 5666,
      "gress": 5667,
      "esus": 5668,
      "ross": 5669,
      "Ġposto": 5670,
      "Ġchuv": 5671,
      "ĠtrÃ¡s": 5672,
      "Ġfinanciamento": 5673,
      "Ġremun": 5674,
      "Ġaparel": 5675,
      "ĠOperaÃ§Ã£o": 5676,
      "ĠPat": 5677,
      "ĠCal": 5678,
      "Ġexporta": 5679,
      "Ġregistros": 5680,
      "Ġconflitos": 5681,
      "Ġpessoais": 5682,
      "Tra": 5683,
      "Ġtant": 5684,
      "Ġcannabis": 5685,
      "Ġceleb": 5686,
      "anom": 5687,
      "ĠPDT": 5688,
      "Ġtradicional": 5689,
      "Mais": 5690,
      "jos": 5691,
      "xo": 5692,
      "Ġresolver": 5693,
      "Ġautom": 5694,
      "Ima": 5695,
      "NA": 5696,
      "ifer": 5697,
      "Ġfonte": 5698,
      "ĠOb": 5699,
      "Ġconsult": 5700,
      "Ãªnio": 5701,
      "Ġflagra": 5702,
      "enÃ´m": 5703,
      "ating": 5704,
      "Ġ300": 5705,
      "ĠcarÃ¡": 5706,
      "ĠRegional": 5707,
      "Ġabandon": 5708,
      "ĠhipÃ³tes": 5709,
      "arm": 5710,
      "Ġtrop": 5711,
      "atu": 5712,
      "Ġentrevistas": 5713,
      "Ġlar": 5714,
      "Ġlat": 5715,
      "ĠMal": 5716,
      "Ġapontam": 5717,
      "Mu": 5718,
      "ĠVila": 5719,
      "Ġmay": 5720,
      "Ġcantor": 5721,
      "ĠCB": 5722,
      "ÃŃdios": 5723,
      "ĠdeverÃ¡": 5724,
      "Ġbet": 5725,
      "ĠMend": 5726,
      "plic": 5727,
      "Ġprotesto": 5728,
      "ĠcarÃ¡ter": 5729,
      "Ġâ": 5730,
      "Ġenorme": 5731,
      "Ġperguntas": 5732,
      "lig": 5733,
      "enha": 5734,
      "ĠreaÃ§Ã£o": 5735,
      "antil": 5736,
      "Ġintim": 5737,
      "Ġinterna": 5738,
      "Ġviaj": 5739,
      "Ġidentidade": 5740,
      "ĠhistÃ³rica": 5741,
      "Ġcliente": 5742,
      "Ġemergencial": 5743,
      "ndas": 5744,
      "ĠBu": 5745,
      "Ġdescul": 5746,
      "Ġferram": 5747,
      "ĠLG": 5748,
      "cons": 5749,
      "ĠrepÃ³rter": 5750,
      "Ġvivo": 5751,
      "ĠMon": 5752,
      "Ġamiz": 5753,
      "Ġadquir": 5754,
      "ĠDireito": 5755,
      "Ġprodutores": 5756,
      "jor": 5757,
      "Ġfos": 5758,
      "ene": 5759,
      "Ġdefens": 5760,
      "Ġreceberam": 5761,
      "ĠtÃ©cnico": 5762,
      "ĠPh": 5763,
      "ĠSanto": 5764,
      "ĠRos": 5765,
      "ĠFG": 5766,
      "Ġmotivos": 5767,
      "Ġquebra": 5768,
      "ouro": 5769,
      "Ġpron": 5770,
      "ĠcontrataÃ§Ã£o": 5771,
      "encia": 5772,
      "heco": 5773,
      "ĠRa": 5774,
      "ĠindicaÃ§Ã£o": 5775,
      "Nesta": 5776,
      "ison": 5777,
      "Embora": 5778,
      "eleÃ§Ã£o": 5779,
      "Ġaposent": 5780,
      "ĠquilÃ´metros": 5781,
      "Ġsexo": 5782,
      "ĠconteÃºdos": 5783,
      "ĠGoiÃ¡s": 5784,
      "Ġcompens": 5785,
      "ĠDepartamento": 5786,
      "UniÃ£o": 5787,
      "Ġimpresso": 5788,
      "?\"": 5789,
      "ations": 5790,
      "ĠMendonÃ§a": 5791,
      "Ġdiscutir": 5792,
      "itÃ£o": 5793,
      "Ġbens": 5794,
      "ĠSet": 5795,
      "ĠassociaÃ§Ã£o": 5796,
      "eitou": 5797,
      "Ġagrav": 5798,
      "ulaÃ§Ãµes": 5799,
      "Ġroup": 5800,
      "Ġresponsab": 5801,
      "iquei": 5802,
      "Ġpromover": 5803,
      "izonte": 5804,
      "presa": 5805,
      "postos": 5806,
      "Ġ--": 5807,
      "Ġservidor": 5808,
      "%),": 5809,
      ");": 5810,
      "Ġ400": 5811,
      "Ġidentificar": 5812,
      "ĠEstadual": 5813,
      "Ġeduc": 5814,
      "Ġquero": 5815,
      "Ġflu": 5816,
      "ĠIl": 5817,
      "andro": 5818,
      "Ġusados": 5819,
      "anaus": 5820,
      "Ġsold": 5821,
      "Ġacrescentou": 5822,
      "feito": 5823,
      "uela": 5824,
      "ĠSo": 5825,
      "ĠjurÃŃdico": 5826,
      "Ġmecan": 5827,
      "xico": 5828,
      "Ġmist": 5829,
      "Ġreb": 5830,
      "Ġrestr": 5831,
      "vidÃ£o": 5832,
      "Ġquarto": 5833,
      "Ġqueb": 5834,
      "ank": 5835,
      "Ġmesmos": 5836,
      "Ġencontrado": 5837,
      "Ġsistemas": 5838,
      "Ġtrazer": 5839,
      "Ġagricultura": 5840,
      "ĠPesquisa": 5841,
      "eses": 5842,
      "alth": 5843,
      "Ã³lica": 5844,
      "Ġimposto": 5845,
      "ragem": 5846,
      "ĠMiguel": 5847,
      "Ġpassam": 5848,
      "ĠFrancisco": 5849,
      "Ġadolescente": 5850,
      "Ġmeios": 5851,
      "adoras": 5852,
      "Ġ(@": 5853,
      "stra": 5854,
      "arcia": 5855,
      "ranco": 5856,
      "Ġvirtual": 5857,
      "ious": 5858,
      "ĠRo": 5859,
      "Ġideias": 5860,
      "Ġexatamente": 5861,
      "Tube": 5862,
      "pp": 5863,
      "Ġonda": 5864,
      "Ġamericana": 5865,
      "ĠbebÃª": 5866,
      "Ġdedic": 5867,
      "Ġgratu": 5868,
      "Ġouvidos": 5869,
      "ĠdomÃ©": 5870,
      "folha": 5871,
      "Ġlevado": 5872,
      "Ġalega": 5873,
      "Ġgesta": 5874,
      "atÃ³ria": 5875,
      "Ġconsol": 5876,
      "Ġmajor": 5877,
      "ĠcritÃ©rios": 5878,
      "Ġrusso": 5879,
      "alha": 5880,
      "ĠSch": 5881,
      "Ġvale": 5882,
      "Ġouvir": 5883,
      "ĠBarroso": 5884,
      "elizmente": 5885,
      "ĠanÃºncio": 5886,
      "Ġdizia": 5887,
      "Ġdiscipl": 5888,
      "DEM": 5889,
      "como": 5890,
      "ĠhorÃ¡rio": 5891,
      "Ġcriou": 5892,
      "Ġassocia": 5893,
      "Ġwhen": 5894,
      "NÃ³s": 5895,
      "Ġnacionais": 5896,
      "ĠApesar": 5897,
      "aranhÃ£o": 5898,
      "ĠÃ´n": 5899,
      "Antes": 5900,
      "Ġtoc": 5901,
      "ĠvÃªm": 5902,
      "Ġafter": 5903,
      "Ġdestacou": 5904,
      "Ġleis": 5905,
      "ĠJan": 5906,
      "Ġreceita": 5907,
      "ĠWill": 5908,
      "40": 5909,
      "rael": 5910,
      "Ġresist": 5911,
      "meida": 5912,
      "Ġcumprir": 5913,
      "eroporto": 5914,
      "bon": 5915,
      "Ġcad": 5916,
      "ĠJesus": 5917,
      "ange": 5918,
      "ĠAnton": 5919,
      "Reuters": 5920,
      "Ġinfraestrutura": 5921,
      "ĠdistÃ¢ncia": 5922,
      "Ġdezenas": 5923,
      "Ġsigla": 5924,
      "Ġsai": 5925,
      "Ġconter": 5926,
      "ĠmÃºsica": 5927,
      "udos": 5928,
      "Ã´mbia": 5929,
      "Ġempreend": 5930,
      "Ġintegra": 5931,
      "Ġdor": 5932,
      "Ġbara": 5933,
      "acho": 5934,
      "Ġdesigualdade": 5935,
      "Ġcitou": 5936,
      "Ġsp": 5937,
      "ĠfenÃ´m": 5938,
      "Ġdesloc": 5939,
      "ĠAlmeida": 5940,
      "ĠCarregando": 5941,
      "Ġescolh": 5942,
      "ĠmatÃ©ria": 5943,
      "Ã³lio": 5944,
      "Ġexplicar": 5945,
      "rac": 5946,
      "ĠPA": 5947,
      "utado": 5948,
      "Ġnega": 5949,
      "Ġpossu": 5950,
      "Ġextremamente": 5951,
      "Car": 5952,
      "ĠVeja": 5953,
      "Ġconcord": 5954,
      "Ġinvestigado": 5955,
      "ĠliberaÃ§Ã£o": 5956,
      "Ġrestaura": 5957,
      "Ġperspect": 5958,
      "ĠMendes": 5959,
      "Ch": 5960,
      "Ġour": 5961,
      "ĠDa": 5962,
      "Ġruim": 5963,
      "Ġacaba": 5964,
      "Ġcostum": 5965,
      "Ġdando": 5966,
      "Ġbancada": 5967,
      "ĠJacob": 5968,
      "xe": 5969,
      "ĠaÃ©re": 5970,
      "estou": 5971,
      "aixas": 5972,
      "Ġapoiar": 5973,
      "ĠPacheco": 5974,
      "ĠBR": 5975,
      "ĠRousse": 5976,
      "Ġpago": 5977,
      "Ġcoluna": 5978,
      "ĠReceb": 5979,
      "ci": 5980,
      "ĠPGR": 5981,
      "ĠMerc": 5982,
      "Ġatac": 5983,
      "ĠevangÃ©licos": 5984,
      "ernambuco": 5985,
      "br": 5986,
      "Ġolhar": 5987,
      "Ġfronteira": 5988,
      "anomami": 5989,
      "Ġparar": 5990,
      "Ġrecus": 5991,
      "ĠbÃ¡sica": 5992,
      "PF": 5993,
      "PM": 5994,
      "Ġcursos": 5995,
      "ĠnÃŃveis": 5996,
      "angu": 5997,
      "Ġenerg": 5998,
      "Ġmotiv": 5999,
      "Ġproduzir": 6000,
      "ĠColÃ´mbia": 6001,
      "ĠDatafolha": 6002,
      "Ġran": 6003,
      "Ġjamais": 6004,
      "Ġesteja": 6005,
      "ĠcÃ¢meras": 6006,
      "Ġeta": 6007,
      "ficas": 6008,
      "ĠHaddad": 6009,
      "ĠacusaÃ§Ã£o": 6010,
      "elli": 6011,
      "imar": 6012,
      "ule": 6013,
      "ĠIPC": 6014,
      "ibiliz": 6015,
      "ĠInvest": 6016,
      "Ġsome": 6017,
      "Ã¡bio": 6018,
      "Ġaprend": 6019,
      "ĠTe": 6020,
      "Ġthere": 6021,
      "ÃŃngua": 6022,
      "Ã©gio": 6023,
      "Ġoferecer": 6024,
      "Ġretorn": 6025,
      "Ġfossem": 6026,
      "Ġcruz": 6027,
      "ĠMaranhÃ£o": 6028,
      "leta": 6029,
      "ĠGon": 6030,
      "Ġresid": 6031,
      "Ġcases": 6032,
      "Ġatingiu": 6033,
      "ĠSalles": 6034,
      "ĠAugusto": 6035,
      "vos": 6036,
      "Ġampla": 6037,
      "adoria": 6038,
      "Ġtomada": 6039,
      "Ġcuja": 6040,
      "juiz": 6041,
      "Ġarre": 6042,
      "Ġobter": 6043,
      "ĠYouTube": 6044,
      "Ġfix": 6045,
      "ĠInc": 6046,
      "Ġcaixa": 6047,
      "its": 6048,
      "Ġcontar": 6049,
      "Ġpreconc": 6050,
      "ĠGrupo": 6051,
      "ibus": 6052,
      "Ġpergunta": 6053,
      "ĠRena": 6054,
      "ionÃ¡rio": 6055,
      "Ġaler": 6056,
      "ĠPSOL": 6057,
      "Ġcostuma": 6058,
      "afael": 6059,
      "ĠÃ¢m": 6060,
      "ires": 6061,
      "Ġi": 6062,
      "ĠJorge": 6063,
      "Ã¡ss": 6064,
      "Ġenviada": 6065,
      "ĠcondenaÃ§Ã£o": 6066,
      "Ġestre": 6067,
      "ĠUkra": 6068,
      "anhas": 6069,
      "ĠbilhÃ£o": 6070,
      "ĠconsequÃªncias": 6071,
      "Ġgal": 6072,
      "Ġpauta": 6073,
      "Ġamor": 6074,
      "Ġ2011": 6075,
      "Ġhomen": 6076,
      "Ġdeveriam": 6077,
      "Ġpequena": 6078,
      "âĢĵ": 6079,
      "ruto": 6080,
      "Ġcriminosa": 6081,
      "ĠRousseff": 6082,
      "Ġterap": 6083,
      "Ġlendo": 6084,
      "Ġany": 6085,
      "plo": 6086,
      "Ġenx": 6087,
      "Ġusa": 6088,
      "Ġcombater": 6089,
      "Ġsuspeitas": 6090,
      "Ġacabar": 6091,
      "Ġgarantia": 6092,
      "Ġcategoria": 6093,
      "Ġpropriedade": 6094,
      "wer": 6095,
      "Ġinto": 6096,
      "2020": 6097,
      "diÃ§Ã£o": 6098,
      "ĠSol": 6099,
      "ĠBelo": 6100,
      "Ġsintomas": 6101,
      "ĠimÃ³vel": 6102,
      "ĠFal": 6103,
      "Ġinterrom": 6104,
      "Ġtorna": 6105,
      "Ġaus": 6106,
      "Ġfoco": 6107,
      "Ġpleito": 6108,
      "ĠfuncionÃ¡rio": 6109,
      "Ġcerim": 6110,
      "Ġnumber": 6111,
      "ĠmÃ¡scaras": 6112,
      "ĠPartido": 6113,
      "ĠnegociaÃ§Ãµes": 6114,
      "ĠAndrade": 6115,
      "nta": 6116,
      "Ġcompos": 6117,
      "Ġprovavelmente": 6118,
      "Ġfirst": 6119,
      "Ġgarimpo": 6120,
      "Ġsemelhante": 6121,
      "ÃĢ": 6122,
      "ĠManaus": 6123,
      "Ġrequer": 6124,
      "ĠÃ¡udio": 6125,
      "2019": 6126,
      "Ġaplicativos": 6127,
      "ĠOrÃ§amento": 6128,
      "Fo": 6129,
      "itiba": 6130,
      "Ġlot": 6131,
      "Ġproduc": 6132,
      "Ġprem": 6133,
      "Ġfazenda": 6134,
      "Ġchef": 6135,
      "ĠpoderÃ£o": 6136,
      "Ġconduta": 6137,
      "Ġfunciona": 6138,
      "Ġestudante": 6139,
      "Ġshows": 6140,
      "inÃ¡rio": 6141,
      "entas": 6142,
      "ndio": 6143,
      "Ġalugu": 6144,
      "Ġdiretora": 6145,
      "ĠEspecial": 6146,
      "ossex": 6147,
      "Ġassinado": 6148,
      "ĠHumanos": 6149,
      "aco": 6150,
      "Ġseguro": 6151,
      "Ġfiscais": 6152,
      "Ġconstitucional": 6153,
      "Enquanto": 6154,
      "ble": 6155,
      "Ġsh": 6156,
      "ĠPernambuco": 6157,
      "ĠPaÃŃs": 6158,
      "Ġtomou": 6159,
      "ĠrestriÃ§Ãµes": 6160,
      "Mar": 6161,
      "Ġfamos": 6162,
      "ĠANS": 6163,
      "Ġlet": 6164,
      "egan": 6165,
      "Ġfortal": 6166,
      "Ġdiscrim": 6167,
      "Ġmotorista": 6168,
      "Ġmic": 6169,
      "aba": 6170,
      "Ġdireto": 6171,
      "ĠexercÃŃcio": 6172,
      "Tribunal": 6173,
      "ĠpÃ©": 6174,
      "ĠCultura": 6175,
      "Ġach": 6176,
      "ĠaquisiÃ§Ã£o": 6177,
      "Ġdelegacia": 6178,
      "Ġassumiu": 6179,
      "iet": 6180,
      "Ġaltos": 6181,
      "Ġdito": 6182,
      "Ġatua": 6183,
      "ĠÃ¢mbito": 6184,
      "uva": 6185,
      "Ġtuc": 6186,
      "Ġpassag": 6187,
      "ĠimunizaÃ§Ã£o": 6188,
      "riv": 6189,
      "Ġund": 6190,
      "ĠSt": 6191,
      "Ġ41": 6192,
      "achado": 6193,
      "ĠICMS": 6194,
      "Ġsites": 6195,
      "iago": 6196,
      "uring": 6197,
      "Ġescre": 6198,
      "Sobre": 6199,
      "fund": 6200,
      "Ġbloc": 6201,
      "Ġconversar": 6202,
      "IO": 6203,
      "dit": 6204,
      "ĠEp": 6205,
      "Ġ2008": 6206,
      "ĠEconÃ´m": 6207,
      "Ġrecorde": 6208,
      "ĠcidadÃ£o": 6209,
      "Ġpio": 6210,
      "istos": 6211,
      "Ġaceita": 6212,
      "Ġusou": 6213,
      "ardim": 6214,
      "ĠcientÃŃfica": 6215,
      "ĠPet": 6216,
      "ouco": 6217,
      "ĠGarcia": 6218,
      "ferson": 6219,
      "Ġamericanos": 6220,
      "Ġimunizante": 6221,
      "ĠMEC": 6222,
      "Ġativa": 6223,
      "azer": 6224,
      "Ġfuncionamento": 6225,
      "Ġcujo": 6226,
      "Ġcadas": 6227,
      "izes": 6228,
      "Ġhect": 6229,
      "Ġsemestre": 6230,
      "ĠVig": 6231,
      "ĠreforÃ§o": 6232,
      "Ġricos": 6233,
      "Ġcientista": 6234,
      "Ġvest": 6235,
      "Ġformas": 6236,
      "Ġcomput": 6237,
      "Ġinvestir": 6238,
      "ĠEnergia": 6239,
      "Pres": 6240,
      "Ġmulta": 6241,
      "inaria": 6242,
      "Ġtido": 6243,
      "Ġemenda": 6244,
      "ĠLib": 6245,
      "tero": 6246,
      "Ġerrado": 6247,
      "Ġhabitantes": 6248,
      "Ġacrescenta": 6249,
      "Ġhectares": 6250,
      "31": 6251,
      "Ã¡stico": 6252,
      "Ġmonitoramento": 6253,
      "vador": 6254,
      "ĠÃ¡r": 6255,
      "Ġdenuncia": 6256,
      "Ġvaga": 6257,
      "ĠdÃŃvidas": 6258,
      "iev": 6259,
      "Ġrespostas": 6260,
      "Ġcresceu": 6261,
      "Ġressalta": 6262,
      "Ġyears": 6263,
      "ley": 6264,
      "Ġvolunt": 6265,
      "Ġsofreu": 6266,
      "Ġvulner": 6267,
      "Assim": 6268,
      "Ins": 6269,
      "Ġaspec": 6270,
      "Ġanalisar": 6271,
      "ĠPiauÃŃ": 6272,
      "ĠVic": 6273,
      "Ġsaud": 6274,
      "Ġlead": 6275,
      "Ġhumano": 6276,
      "Ġdecidir": 6277,
      "Ãģ": 6278,
      "Ġpresentes": 6279,
      "Ġamost": 6280,
      "ĠdisponÃŃveis": 6281,
      "ĠcidadÃ£os": 6282,
      "ĠsequÃªncia": 6283,
      "quad": 6284,
      "Ġrealizadas": 6285,
      "Ġpesquisadora": 6286,
      "ĠidentificaÃ§Ã£o": 6287,
      "Ġapurar": 6288,
      "ĠpÃ¡ginas": 6289,
      "Ġsy": 6290,
      "Ġemisso": 6291,
      "Ġvinc": 6292,
      "ĠPas": 6293,
      "Ã©dia": 6294,
      "Ġ55": 6295,
      "Ġeleitor": 6296,
      "ĠcobranÃ§a": 6297,
      "Ã±": 6298,
      "Ġcould": 6299,
      "Ġagred": 6300,
      "ĠpadrÃ£o": 6301,
      "ĠconclusÃ£o": 6302,
      "Ġâĸ": 6303,
      "Ġpromete": 6304,
      "ĠJef": 6305,
      "ĠresidÃªncia": 6306,
      "Ġterre": 6307,
      "Ġterrit": 6308,
      "ĠEscol": 6309,
      "ĠarrecadaÃ§Ã£o": 6310,
      "ĠchinÃªs": 6311,
      "ĠEra": 6312,
      "ĠÃĢ": 6313,
      "laÃ§Ãµes": 6314,
      "Ġ2006": 6315,
      "Ġstat": 6316,
      "SC": 6317,
      "Ġpost": 6318,
      "ĠorganizaÃ§Ãµes": 6319,
      "ĠreuniÃµes": 6320,
      "ĠBarb": 6321,
      "iÃ¡ria": 6322,
      "ipais": 6323,
      "Ġdecre": 6324,
      "Ġcentenas": 6325,
      "Ġgarimpeiros": 6326,
      "ĠDu": 6327,
      "Ġrecentes": 6328,
      "Ġseguidores": 6329,
      "Ġworld": 6330,
      "ĠVenez": 6331,
      "Ġempregos": 6332,
      "Ġmedicamento": 6333,
      "Ġvel": 6334,
      "Ġbl": 6335,
      "ecido": 6336,
      "Ġinterno": 6337,
      "Ġanti": 6338,
      "Ġviagens": 6339,
      "Ġcarteira": 6340,
      "Ġequivalente": 6341,
      "Ãºlio": 6342,
      "ER": 6343,
      "ng": 6344,
      "inÃ¡ria": 6345,
      "Ġvet": 6346,
      "ĠTarcÃŃsio": 6347,
      "Ġinden": 6348,
      "ĠBraga": 6349,
      "Ġlugares": 6350,
      "Ġimplement": 6351,
      "ĠLuciano": 6352,
      "Minist": 6353,
      "ics": 6354,
      "ansÃ£o": 6355,
      "Ġapag": 6356,
      "itam": 6357,
      "ĠEste": 6358,
      "Agora": 6359,
      "ĠtÃ¡": 6360,
      "Ġflex": 6361,
      "Ġsequer": 6362,
      "orada": 6363,
      "Ã©dios": 6364,
      "Ġmenino": 6365,
      "videz": 6366,
      "Ġautoridade": 6367,
      "ĠsuspensÃ£o": 6368,
      "Ã©ss": 6369,
      "ĠdÃ³lares": 6370,
      "ĠindivÃŃduos": 6371,
      "Ġcre": 6372,
      "ĠcÃºpula": 6373,
      "Ġred": 6374,
      "Ġeffect": 6375,
      "ĠdisponÃŃvel": 6376,
      "IN": 6377,
      "ego": 6378,
      "Ġtrabalhador": 6379,
      "Ġfins": 6380,
      "Ġimpactos": 6381,
      "ĠEdson": 6382,
      "ĠdÃºvida": 6383,
      "esÃ£o": 6384,
      "Ġlinhas": 6385,
      "ĠEstamos": 6386,
      "Ġlam": 6387,
      "uca": 6388,
      "Ġexped": 6389,
      "Ġmoeda": 6390,
      "han": 6391,
      "ĠNovo": 6392,
      "ĠVol": 6393,
      "Ġtiro": 6394,
      "ek": 6395,
      "Ġinfer": 6396,
      "Ġ46": 6397,
      "Ġparticipantes": 6398,
      "ĠAdminist": 6399,
      "ĠusuÃ¡rio": 6400,
      "Instituto": 6401,
      "Ġgovernadores": 6402,
      "Ġconstruir": 6403,
      "ĠCuritiba": 6404,
      "ote": 6405,
      "Ġvinha": 6406,
      "ited": 6407,
      "ĠAven": 6408,
      "ĠTecn": 6409,
      "ĠJornal": 6410,
      "stica": 6411,
      "Ġverm": 6412,
      "ĠcafÃ©": 6413,
      "Ġartistas": 6414,
      "ĠONG": 6415,
      "ĠHorizonte": 6416,
      "uÃ¡ria": 6417,
      "ĠNas": 6418,
      "Ġpublicidade": 6419,
      "Ġbloqueio": 6420,
      "Ġmadru": 6421,
      "Ġdorm": 6422,
      "Ġafeta": 6423,
      "Ġpastores": 6424,
      "ustta": 6425,
      "Ġtortura": 6426,
      "Foto": 6427,
      "Ġbolsonarismo": 6428,
      "ĠinteligÃªncia": 6429,
      "Ġesperar": 6430,
      "ĠvÃŃnc": 6431,
      "TERS": 6432,
      "Ġtwo": 6433,
      "Ã©to": 6434,
      "Ġgig": 6435,
      "Ã³i": 6436,
      "Ã³logo": 6437,
      "ĠPrevent": 6438,
      "UTERS": 6439,
      "lago": 6440,
      "Ġimpor": 6441,
      "Ġembaix": 6442,
      "Ġsimplesmente": 6443,
      "omem": 6444,
      "Ġpasso": 6445,
      "Ġgravidez": 6446,
      "Ġ2009": 6447,
      "Ġjudiciais": 6448,
      "Ġfrase": 6449,
      "Ġcena": 6450,
      "ogle": 6451,
      "utaÃ§Ã£o": 6452,
      "Ġprovis": 6453,
      "Ġcircu": 6454,
      "ReproduÃ§Ã£o": 6455,
      "Tem": 6456,
      "pto": 6457,
      "ĠterÃ£o": 6458,
      "ificada": 6459,
      "nstru": 6460,
      "Ġpenal": 6461,
      "usttavo": 6462,
      "uÃ§Ãµes": 6463,
      "ute": 6464,
      "Ġdisposit": 6465,
      "ĠReceita": 6466,
      "Ġpropriet": 6467,
      "ussian": 6468,
      "DF": 6469,
      "Ġreit": 6470,
      "Ġbel": 6471,
      "ĠFÃ¡bio": 6472,
      "Ġadm": 6473,
      "Ġpequeno": 6474,
      "ĠpÃ¡gina": 6475,
      "ĠLGBT": 6476,
      "Ġcru": 6477,
      "iot": 6478,
      "Ġlidar": 6479,
      "ĠMos": 6480,
      "guai": 6481,
      "erados": 6482,
      "ĠUSP": 6483,
      "Ġaumenta": 6484,
      "rigor": 6485,
      "ĠpatrimÃ´nio": 6486,
      "Ġdesemprego": 6487,
      "Ġreajustes": 6488,
      "fal": 6489,
      "mil": 6490,
      "ick": 6491,
      "ĠlÃª": 6492,
      "Ġassegu": 6493,
      "Ġprivil": 6494,
      "ĠAlberto": 6495,
      "ĠEnquanto": 6496,
      "Ġdigitais": 6497,
      "ĠÃ³leo": 6498,
      "ĠlideranÃ§as": 6499,
      "ĠeletrÃ´nicas": 6500,
      "Supremo": 6501,
      "ĠfenÃ´meno": 6502,
      "criÃ§Ã£o": 6503,
      "ĠBl": 6504,
      "Ġexecutivo": 6505,
      "Ġpaz": 6506,
      "Ġdispara": 6507,
      "Ġvivem": 6508,
      "Ġposicionamento": 6509,
      "ĠÃ´nibus": 6510,
      "iria": 6511,
      "over": 6512,
      "ĠlanÃ§amento": 6513,
      "ĠcartÃ£o": 6514,
      "Ġrenov": 6515,
      "Ġabsoluta": 6516,
      "Ġcic": 6517,
      "Ġ2000": 6518,
      "ramos": 6519,
      "Ġagain": 6520,
      "Ġpositivo": 6521,
      "Ġimediatamente": 6522,
      "ĠreÃº": 6523,
      "oce": 6524,
      "Ġterm": 6525,
      "talidade": 6526,
      "Ġverbas": 6527,
      "ĠMartins": 6528,
      "ertos": 6529,
      "ĠseleÃ§Ã£o": 6530,
      "Ġfortes": 6531,
      "Ġagrad": 6532,
      "Ġplan": 6533,
      "Ġdeixaram": 6534,
      "Ġgasto": 6535,
      "Ġadministrativa": 6536,
      "ĠOrganizaÃ§Ã£o": 6537,
      "Ġmateriais": 6538,
      "ĠRussia": 6539,
      "Ġtempos": 6540,
      "Ġsurpreend": 6541,
      "Ġrelacionamento": 6542,
      ".,": 6543,
      "04": 6544,
      "ĠCel": 6545,
      "ĠNesse": 6546,
      "ĠJun": 6547,
      "ioso": 6548,
      "Ġverdad": 6549,
      "ĠaviÃ£o": 6550,
      "Ġaquilo": 6551,
      "Ã³loga": 6552,
      "Ġampliar": 6553,
      "Ġideal": 6554,
      "ĠelÃ©trica": 6555,
      "Ġtonel": 6556,
      "ĠPan": 6557,
      "Ġexclu": 6558,
      "Ġcriada": 6559,
      "ĠRecife": 6560,
      "Ġabsur": 6561,
      "Ġanimal": 6562,
      "Ġretomada": 6563,
      "Ġrapidamente": 6564,
      "ĠmissÃ£o": 6565,
      "Ġescrav": 6566,
      "ublicanos": 6567,
      "Ãªmio": 6568,
      "Ġdiscuss": 6569,
      "ĠexecuÃ§Ã£o": 6570,
      "eij": 6571,
      "ĠTudo": 6572,
      "Ġregistrados": 6573,
      "ĠsentenÃ§a": 6574,
      "Ġviver": 6575,
      "Ġmadrugada": 6576,
      "75": 6577,
      "ete": 6578,
      "ĠRamos": 6579,
      "Ġsubmet": 6580,
      "Ġpassagem": 6581,
      "Ġdepende": 6582,
      "ĠcomentÃ¡rios": 6583,
      "ĠdemocrÃ¡tico": 6584,
      "ega": 6585,
      "itando": 6586,
      "ivaldo": 6587,
      "ĠrepercussÃ£o": 6588,
      "ĠAdriano": 6589,
      "Ġgr": 6590,
      "Ġaquela": 6591,
      "Ġlonga": 6592,
      "Ã©tico": 6593,
      "Ġconcluiu": 6594,
      "ĠMauro": 6595,
      "ĠprincÃŃpio": 6596,
      "ĠProcuradoria": 6597,
      "utam": 6598,
      "atÃ¡rio": 6599,
      "ĠTodos": 6600,
      "Ġindustrial": 6601,
      "Ġresponde": 6602,
      "ĠexpansÃ£o": 6603,
      "ĠcrÃŃtica": 6604,
      "Ġacompanhar": 6605,
      "ĠÃįndia": 6606,
      "ĠrÃ¡pido": 6607,
      "uf": 6608,
      "Ġcaro": 6609,
      "ĠMDB": 6610,
      "ĠhÃŃd": 6611,
      "Ġhouver": 6612,
      "ĠgravaÃ§Ã£o": 6613,
      "Ġpegar": 6614,
      "ĠdesinformaÃ§Ã£o": 6615,
      "publicidade": 6616,
      "ncer": 6617,
      "Ġinterval": 6618,
      "ĠprejuÃŃzo": 6619,
      "ĠWilliam": 6620,
      "Ġfeira": 6621,
      "ulou": 6622,
      "Ġcorrida": 6623,
      "Ġisolamento": 6624,
      "Ġhospitais": 6625,
      "TS": 6626,
      "Ġtrou": 6627,
      "ilher": 6628,
      "Ġator": 6629,
      "Ġinclud": 6630,
      "rimeiro": 6631,
      "Ġurna": 6632,
      "Ġlitro": 6633,
      "ĠReceba": 6634,
      "tt": 6635,
      "Ġtiros": 6636,
      "ĠCE": 6637,
      "ĠHist": 6638,
      "Ġcarreg": 6639,
      "Ġjornalismo": 6640,
      "Ġtrein": 6641,
      "ĠREUTERS": 6642,
      "ĠcerimÃ´nia": 6643,
      "90": 6644,
      "tiv": 6645,
      "Ġmer": 6646,
      "itmo": 6647,
      "ĠAqu": 6648,
      "Ġatras": 6649,
      "ĠVara": 6650,
      "Ġobteve": 6651,
      "Ġprimeiras": 6652,
      "Ġpeso": 6653,
      "Ġcoloca": 6654,
      "ĠexploraÃ§Ã£o": 6655,
      "Am": 6656,
      "ius": 6657,
      "Ġmis": 6658,
      "ĠMulher": 6659,
      "Ġcompromet": 6660,
      "Ġelementos": 6661,
      "Ġidosos": 6662,
      "Vac": 6663,
      "gado": 6664,
      "Ġteste": 6665,
      "ĠDi": 6666,
      "Ġlimites": 6667,
      "Ġcompletamente": 6668,
      "raÃ§Ãµes": 6669,
      "ĠmÃ©to": 6670,
      "Ġrecu": 6671,
      "Ġespalh": 6672,
      "Ġindigen": 6673,
      "ĠMarco": 6674,
      "Ġintegral": 6675,
      "Ġcolocou": 6676,
      "Ġouviu": 6677,
      "Ġincorpo": 6678,
      "Ġtipos": 6679,
      "rava": 6680,
      "ressÃ£o": 6681,
      "ĠSerra": 6682,
      "Ġestran": 6683,
      "ĠAntonio": 6684,
      "racia": 6685,
      "Ġnam": 6686,
      "ĠMachado": 6687,
      "ionada": 6688,
      "Ġmuda": 6689,
      "forma": 6690,
      "Ġvoz": 6691,
      "Ġutilizado": 6692,
      "Ġmental": 6693,
      "ĠVieira": 6694,
      "ĠÃ³bitos": 6695,
      "ME": 6696,
      "inense": 6697,
      "ĠgrÃ¡": 6698,
      "upla": 6699,
      "80": 6700,
      "gar": 6701,
      "hn": 6702,
      "Ġpec": 6703,
      "reta": 6704,
      "Ġgre": 6705,
      "Ġexame": 6706,
      "Ġ42": 6707,
      "Ġencontrados": 6708,
      "ĠGuar": 6709,
      "Ġhigh": 6710,
      "umos": 6711,
      "ĠSistema": 6712,
      "rigo": 6713,
      "ĠFin": 6714,
      "urais": 6715,
      "Ġmany": 6716,
      "Ġlegais": 6717,
      "Ã©lio": 6718,
      "ĠForam": 6719,
      "ĠEuropeia": 6720,
      "33": 6721,
      "45": 6722,
      "Â°": 6723,
      "Ġaula": 6724,
      "ĠHol": 6725,
      "ÃŃna": 6726,
      "Ġrelato": 6727,
      "Ġcirurg": 6728,
      "ĠreÃºne": 6729,
      "ridade": 6730,
      "ismos": 6731,
      "ĠinclusÃ£o": 6732,
      "Ġtaxas": 6733,
      "Ġcultural": 6734,
      "Ġbrinc": 6735,
      "ĠfÃ¡b": 6736,
      "ĠMÃ©": 6737,
      "Ġjeito": 6738,
      "Ġdireta": 6739,
      "Ġestudar": 6740,
      "Ġdefinir": 6741,
      "Ġvantagem": 6742,
      "Ġchuvas": 6743,
      "isp": 6744,
      "redo": 6745,
      "ultos": 6746,
      "ĠAntes": 6747,
      "Ġonly": 6748,
      "inais": 6749,
      "ĠPenal": 6750,
      "ĠesforÃ§o": 6751,
      "creva": 6752,
      "Ġaluguel": 6753,
      "ĠLÃ¡": 6754,
      "Ġconsulta": 6755,
      "Ġpasse": 6756,
      "Ġfert": 6757,
      "Ġtelev": 6758,
      "Ġreconhecimento": 6759,
      "Ġ1990": 6760,
      "Ġjuntos": 6761,
      "Ġdesconhec": 6762,
      "rÃµes": 6763,
      "ĠSUS": 6764,
      "Ġsuch": 6765,
      "ĠOc": 6766,
      "Ġparentes": 6767,
      "Ġrecord": 6768,
      "ĠVar": 6769,
      "Ġmesa": 6770,
      "Ġincre": 6771,
      "ĠBarra": 6772,
      "Ã§al": 6773,
      "imp": 6774,
      "ĠsensaÃ§Ã£o": 6775,
      "Ãºnior": 6776,
      "Ġcomemora": 6777,
      "ĠhipÃ³tese": 6778,
      "ĠcoraÃ§Ã£o": 6779,
      "Ġbrit": 6780,
      "otou": 6781,
      "Ã¢nt": 6782,
      "ĠAdv": 6783,
      "Ġconfirmed": 6784,
      "Ġgaro": 6785,
      "igar": 6786,
      "ĠNew": 6787,
      "Ġenfrentar": 6788,
      "ĠclÃŃnica": 6789,
      "lom": 6790,
      "ny": 6791,
      "Ġgerou": 6792,
      "ecom": 6793,
      "Ġtrag": 6794,
      "ĠincÃª": 6795,
      "Ġ150": 6796,
      "Ġinicialmente": 6797,
      "Ġaluno": 6798,
      "mann": 6799,
      "Ġfort": 6800,
      "Ġabuso": 6801,
      "Ġ600": 6802,
      "Ġsoja": 6803,
      "ota": 6804,
      "Ġtit": 6805,
      "onia": 6806,
      "Ġsuj": 6807,
      "Ġdeaths": 6808,
      "RO": 6809,
      "ky": 6810,
      "ness": 6811,
      "Ã¡nd": 6812,
      "Ġhumana": 6813,
      "Ġnormas": 6814,
      "ĠVenezuela": 6815,
      "AC": 6816,
      "Ġdupla": 6817,
      "Ġtab": 6818,
      "eneca": 6819,
      "Ġhel": 6820,
      "Ġmascul": 6821,
      "ĠofÃŃcio": 6822,
      "zos": 6823,
      "roduz": 6824,
      "elar": 6825,
      "ivados": 6826,
      "Ġadic": 6827,
      "round": 6828,
      "Ġautores": 6829,
      "etropol": 6830,
      "Ġatuar": 6831,
      "ĠPrograma": 6832,
      "Ġapresentada": 6833,
      "Ġbi": 6834,
      "ĠSh": 6835,
      "ĠdisposiÃ§Ã£o": 6836,
      "Ġprestar": 6837,
      "Ġafirmar": 6838,
      "ĠescritÃ³rio": 6839,
      "Ġprocurou": 6840,
      "Ġregistrada": 6841,
      "Ġfrag": 6842,
      "iÃ³n": 6843,
      "chefe": 6844,
      "DA": 6845,
      "entando": 6846,
      "ĠCidadania": 6847,
      "obia": 6848,
      "Ġprevista": 6849,
      "Ġsomos": 6850,
      "Ġtiver": 6851,
      "Ġestupro": 6852,
      "ilherme": 6853,
      "fera": 6854,
      "ĠTemos": 6855,
      "estÃµes": 6856,
      "ĠJardim": 6857,
      "ĠassistÃªncia": 6858,
      "ĠintervenÃ§Ã£o": 6859,
      "Ġcaminhon": 6860,
      "Ver": 6861,
      "ten": 6862,
      "Ġhot": 6863,
      "ĠRussian": 6864,
      "ĠTes": 6865,
      "dap": 6866,
      "Ġdefine": 6867,
      "Ġapoia": 6868,
      "indica": 6869,
      "UF": 6870,
      "olas": 6871,
      "Ġ43": 6872,
      "ificados": 6873,
      "Ġprecisamos": 6874,
      "ĠausÃªncia": 6875,
      "vers": 6876,
      "ĠSud": 6877,
      "Ã¢ncer": 6878,
      "Ġcrescer": 6879,
      "ĠSimone": 6880,
      "Ġjogos": 6881,
      "Ġcedo": 6882,
      "inente": 6883,
      "itÃ¡rias": 6884,
      "ĠAleg": 6885,
      "Ġlegenda": 6886,
      "Ġfutebol": 6887,
      "Ġlembrar": 6888,
      "Ġperigos": 6889,
      "Ġconsiderando": 6890,
      "ĠReal": 6891,
      "ĠrevisÃ£o": 6892,
      "ĠSalvador": 6893,
      "Ġengenh": 6894,
      "Ã¢nea": 6895,
      "ĠChe": 6896,
      "ndom": 6897,
      "Ġfind": 6898,
      "ĠGuerra": 6899,
      "Ġatuais": 6900,
      "Ġpensa": 6901,
      "Ġ$": 6902,
      "Ġaz": 6903,
      "ĠRafael": 6904,
      "Ġaceitar": 6905,
      "Ġcolun": 6906,
      "ervo": 6907,
      "Ġrob": 6908,
      "Ġmarcas": 6909,
      "Ġquestionamentos": 6910,
      "Ġcust": 6911,
      "Ġaliment": 6912,
      "ficiÃªncia": 6913,
      "Ã¢nd": 6914,
      "Ġfila": 6915,
      "Ġ2003": 6916,
      "Ġsupermerc": 6917,
      "ĠMilton": 6918,
      "Ġembarc": 6919,
      "Ġaguarda": 6920,
      "ĠcÃ³digo": 6921,
      "ĠAma": 6922,
      "land": 6923,
      "Ġpalest": 6924,
      "vamos": 6925,
      "Ġtrabalhistas": 6926,
      "Ġacreditar": 6927,
      "off": 6928,
      "Ġestrangeiros": 6929,
      "ĠVigilÃ¢ncia": 6930,
      "//": 6931,
      "Ġtrajet": 6932,
      "Ġposso": 6933,
      "Esta": 6934,
      "ĠnecessÃ¡ria": 6935,
      "ware": 6936,
      "xima": 6937,
      "Ġtive": 6938,
      "Ġenquad": 6939,
      "Ġolhos": 6940,
      "Ġsofrer": 6941,
      "ces": 6942,
      "Ġmembro": 6943,
      "ĠMad": 6944,
      "Ġestra": 6945,
      "ĠIsa": 6946,
      "urs": 6947,
      "Ġelim": 6948,
      "Ġavis": 6949,
      "Ġrefinar": 6950,
      "ĠocupaÃ§Ã£o": 6951,
      "Ġimplant": 6952,
      "ĠMPF": 6953,
      "ĠrejeiÃ§Ã£o": 6954,
      "Ġtestemun": 6955,
      "cont": 6956,
      "ladim": 6957,
      "ogos": 6958,
      "ualmente": 6959,
      "Ġthese": 6960,
      "Ġ47": 6961,
      "Ġprofund": 6962,
      "Ġdetermina": 6963,
      "Ġcampanhas": 6964,
      "ĠlideranÃ§a": 6965,
      "Ã¡ndez": 6966,
      "Ġdaquele": 6967,
      "ĠlÃŃqu": 6968,
      "ĠBand": 6969,
      "Ãªncio": 6970,
      "isch": 6971,
      "argo": 6972,
      "ĠlÃŃngua": 6973,
      "Ġenfer": 6974,
      "Ġintermed": 6975,
      "Ġchegam": 6976,
      "Ġmata": 6977,
      "Ġpublicamente": 6978,
      "Ġsolo": 6979,
      "ĠesperanÃ§a": 6980,
      "Ġlegisl": 6981,
      "ween": 6982,
      "ides": 6983,
      "pont": 6984,
      "ende": 6985,
      "Ġfalsas": 6986,
      "arch": 6987,
      "ĠhaverÃ¡": 6988,
      "Ġdemarc": 6989,
      "ĠCrÃ©dito": 6990,
      "Ġajudou": 6991,
      "Ġtradicionais": 6992,
      "ĠportuguÃªs": 6993,
      "ĠdiagnÃ³": 6994,
      "idÃ£o": 6995,
      "ĠFim": 6996,
      "Ġsupera": 6997,
      "Ġterror": 6998,
      "Ġgarante": 6999,
      "Ġparalelo": 7000,
      "ĠGoogle": 7001,
      "Ġafast": 7002,
      "ĠÃ¡guas": 7003,
      "ĠconcessÃ£o": 7004,
      "Ã³rum": 7005,
      "ĠForÃ§a": 7006,
      "ĠlaboratÃ³rio": 7007,
      "GO": 7008,
      "ĠdepressÃ£o": 7009,
      "Ġnow": 7010,
      "ĠacadÃªm": 7011,
      "ĠGusttavo": 7012,
      "Ġarmaz": 7013,
      "Ġdestino": 7014,
      "ĠutilizaÃ§Ã£o": 7015,
      "Paulo": 7016,
      "ĠDonald": 7017,
      "Pule": 7018,
      "aros": 7019,
      "Ġvio": 7020,
      "Ġreag": 7021,
      "Ġpred": 7022,
      "Ġwar": 7023,
      "ĠindÃŃcios": 7024,
      "Ġmelhorar": 7025,
      "Pre": 7026,
      "dades": 7027,
      "Ġaer": 7028,
      "Ġlav": 7029,
      "ĠRog": 7030,
      "hoto": 7031,
      "Ġassuntos": 7032,
      "Ġcarbon": 7033,
      "Ġlocalizada": 7034,
      "Ġescala": 7035,
      "://": 7036,
      "Ġcomigo": 7037,
      "ĠAras": 7038,
      "ĠCiÃªncia": 7039,
      "ĠSab": 7040,
      "ize": 7041,
      "Ġcompro": 7042,
      "Ġwhere": 7043,
      "ifesta": 7044,
      "Ġexige": 7045,
      "Ġsobreviv": 7046,
      "ling": 7047,
      "Ġante": 7048,
      "ĠJÃºnior": 7049,
      "ĠBrazilian": 7050,
      "ografia": 7051,
      "ko": 7052,
      "lin": 7053,
      "ore": 7054,
      "Ġqueim": 7055,
      "emÃ¡tica": 7056,
      "ilÃŃb": 7057,
      "resp": 7058,
      "ecem": 7059,
      "ĠFundo": 7060,
      "inato": 7061,
      "Ġincom": 7062,
      "Ġeuro": 7063,
      "Ġsubir": 7064,
      "Ġmunicipais": 7065,
      "Ġperfis": 7066,
      "umb": 7067,
      "Ġdesist": 7068,
      "ĠGal": 7069,
      "ĠUber": 7070,
      "Ġdeixando": 7071,
      "Ã³gico": 7072,
      "Ġrefinarias": 7073,
      "uÃ¡rio": 7074,
      "Ġback": 7075,
      "ĠassÃ©dio": 7076,
      "ĠhomicÃŃdio": 7077,
      "Ġescolher": 7078,
      "ĠTrabalh": 7079,
      "ladimir": 7080,
      "part": 7081,
      "Ġdid": 7082,
      "Ġorg": 7083,
      "Ġ59": 7084,
      "Ġmarket": 7085,
      "Ġbolso": 7086,
      "Ġdiminuir": 7087,
      "ON": 7088,
      "imenta": 7089,
      "Ġemoc": 7090,
      "Ġboca": 7091,
      "Ġacolh": 7092,
      "ĠVamos": 7093,
      "Ġtransmit": 7094,
      "anteve": 7095,
      "Ġtrabalhista": 7096,
      "ĠtÃ©cnicas": 7097,
      "Ġisolados": 7098,
      "Ġpertenc": 7099,
      "Ġpropaganda": 7100,
      "ĠMonteiro": 7101,
      "Col": 7102,
      "jÃ¡": 7103,
      "Ġinim": 7104,
      "Ġaltas": 7105,
      "uru": 7106,
      "Ġuse": 7107,
      "ĠChile": 7108,
      "eÃºdo": 7109,
      "Ġvigor": 7110,
      "Ġfigura": 7111,
      "ism": 7112,
      "Ġnesses": 7113,
      "Ġlava": 7114,
      "ĠLÃº": 7115,
      "Ã¢ns": 7116,
      "Ġpostura": 7117,
      "Ġmorrer": 7118,
      "Ġconseguem": 7119,
      "Ġcolocado": 7120,
      "ecause": 7121,
      "ĠCastro": 7122,
      "ĠendereÃ§o": 7123,
      "Ġdada": 7124,
      "Ġmanteve": 7125,
      "Ġtol": 7126,
      "Ġativos": 7127,
      "Ġadia": 7128,
      "Ġgradu": 7129,
      "ances": 7130,
      "Ġdiverg": 7131,
      "Ġdescar": 7132,
      "ĠYanomami": 7133,
      "Ġpersonagem": 7134,
      "ĠMoura": 7135,
      "Ã¢nsito": 7136,
      "ning": 7137,
      "ree": 7138,
      "ioc": 7139,
      "Ġlux": 7140,
      "Ġgosta": 7141,
      "Ġaltura": 7142,
      "ĠPolÃŃtica": 7143,
      "Ġartista": 7144,
      "Ġfabrica": 7145,
      "nes": 7146,
      "nera": 7147,
      "Ġnuc": 7148,
      "Ġreab": 7149,
      "Ġbur": 7150,
      "Ġapl": 7151,
      "vela": 7152,
      "Ġexce": 7153,
      "ĠReis": 7154,
      "Ġmarcada": 7155,
      "Ġfesta": 7156,
      "ĠJoe": 7157,
      "Ġculpa": 7158,
      "alheiros": 7159,
      "ĠMusk": 7160,
      "ĠLegislativo": 7161,
      "Ġvide": 7162,
      "ĠFaria": 7163,
      "ĠLev": 7164,
      "ĠPorque": 7165,
      "Ġfinanceiras": 7166,
      "Ġquestionou": 7167,
      "Ġrevela": 7168,
      "Ġtarif": 7169,
      "ĠcÃ¡lculo": 7170,
      "vido": 7171,
      "ww": 7172,
      "Ġadap": 7173,
      "icando": 7174,
      "ĠDal": 7175,
      "Ġimig": 7176,
      "Ġinteiro": 7177,
      "Ġverba": 7178,
      "ĠligaÃ§Ã£o": 7179,
      "ĠConf": 7180,
      "Ġbatal": 7181,
      "ago": 7182,
      "rea": 7183,
      "Ġpandemic": 7184,
      "Ġaprovou": 7185,
      "Ġresolve": 7186,
      "ĠFranco": 7187,
      "Ġbetween": 7188,
      "Ġalinh": 7189,
      "Ġanuncia": 7190,
      "Ġcompan": 7191,
      "ĠEsc": 7192,
      "ĠalteraÃ§Ã£o": 7193,
      "Ġwhat": 7194,
      "Ġcorrespond": 7195,
      "ĠFazenda": 7196,
      "vores": 7197,
      "Ġlike": 7198,
      "ficient": 7199,
      "Ġafric": 7200,
      "ĠeletrÃ´nico": 7201,
      "Av": 7202,
      "sen": 7203,
      "Ġshe": 7204,
      "ouve": 7205,
      "udios": 7206,
      "Ġandamento": 7207,
      "Ġcelulares": 7208,
      "ĠirmÃ£": 7209,
      "ĠServi": 7210,
      "ĠbraÃ§o": 7211,
      "Ġpossuem": 7212,
      "ĠJefferson": 7213,
      "Ġtoneladas": 7214,
      "tagon": 7215,
      "Ġgost": 7216,
      "Ġbreve": 7217,
      "Ġincomp": 7218,
      "Ġdivulgar": 7219,
      "Ġquestionado": 7220,
      "Ġrelacionados": 7221,
      "Im": 7222,
      "eio": 7223,
      "vias": 7224,
      "Ġans": 7225,
      "inou": 7226,
      "Ġacidente": 7227,
      "Ġafirmando": 7228,
      "Ġsabem": 7229,
      "Ġsinais": 7230,
      "ĠCNN": 7231,
      "ĠPessoal": 7232,
      "ned": 7233,
      "itoral": 7234,
      "Ġagente": 7235,
      "ĠConc": 7236,
      "Ġprecisar": 7237,
      "Ġatingir": 7238,
      "ilÃŃbrio": 7239,
      "Ġuns": 7240,
      "isÃ³dios": 7241,
      "Ġinoc": 7242,
      "ĠEv": 7243,
      "Ġprol": 7244,
      "Ġconseguiram": 7245,
      "Ġligado": 7246,
      "ĠdÃºvidas": 7247,
      "Ġignora": 7248,
      "Ġperspectiva": 7249,
      "Ġmadeira": 7250,
      "ĠnÂº": 7251,
      "Ġvidas": 7252,
      "hando": 7253,
      "Ã³sito": 7254,
      "Ġantic": 7255,
      "ĠprÃ³prias": 7256,
      "ĠfrequÃªncia": 7257,
      "Ġprioridade": 7258,
      "Ãºcleo": 7259,
      "Ġlast": 7260,
      "Ġcomparec": 7261,
      "Ġnegra": 7262,
      "Ġrapa": 7263,
      "ĠQual": 7264,
      "Ġauditoria": 7265,
      "360": 7266,
      "Data": 7267,
      "adÃ£o": 7268,
      "Ġcontudo": 7269,
      "ĠsÃ³cio": 7270,
      "ĠapreensÃ£o": 7271,
      "ĠMaur": 7272,
      "Ġfarmac": 7273,
      "ĠcassaÃ§Ã£o": 7274,
      "ĠBarbosa": 7275,
      "tic": 7276,
      "Ġcitado": 7277,
      "Ã³polis": 7278,
      "ĠOMS": 7279,
      "Ġvoo": 7280,
      "ĠAmeric": 7281,
      "ĠnecessÃ¡rios": 7282,
      "ĠdestruiÃ§Ã£o": 7283,
      "Ãµem": 7284,
      "Ġsupostamente": 7285,
      "serv": 7286,
      "ĠcÃ¢ncer": 7287,
      "ĠSeu": 7288,
      "Ġcair": 7289,
      "Ġchamar": 7290,
      "Ġprevia": 7291,
      "ĠContas": 7292,
      "Ġbranco": 7293,
      "El": 7294,
      "ĠSTJ": 7295,
      "Ġagir": 7296,
      "Ġobjeto": 7297,
      "Ġestabelecer": 7298,
      "Ġaparecem": 7299,
      "ĠMÃ©xico": 7300,
      "app": 7301,
      "enhum": 7302,
      "Ġcert": 7303,
      "Ġperguntou": 7304,
      "rÃ©st": 7305,
      "Ġlucros": 7306,
      "Ġvulnera": 7307,
      "Ġconsultoria": 7308,
      "Ġsum": 7309,
      "Ġtare": 7310,
      "ogrÃ¡": 7311,
      "enciamento": 7312,
      "Ġescrit": 7313,
      "iosa": 7314,
      "ĠfederaÃ§Ã£o": 7315,
      "Ġconcorrer": 7316,
      "utores": 7317,
      "ÃŃstico": 7318,
      "ĠcorporaÃ§Ã£o": 7319,
      "ĠlicenÃ§a": 7320,
      "Ġultrap": 7321,
      "ake": 7322,
      "rindo": 7323,
      "Ġ|": 7324,
      "itadas": 7325,
      "Ġtran": 7326,
      "ĠAll": 7327,
      "ĠArte": 7328,
      "Ġqueremos": 7329,
      "Ġavaliar": 7330,
      "tonomia": 7331,
      "Ġestabelece": 7332,
      "ĠirmÃ£os": 7333,
      "lagoas": 7334,
      "lor": 7335,
      "Ġsinc": 7336,
      "ĠPaula": 7337,
      "Ġfornecimento": 7338,
      "ĠimpossÃŃvel": 7339,
      "etropolita": 7340,
      "07": 7341,
      "Ġcozinha": 7342,
      "Ġgri": 7343,
      "Ġsimilar": 7344,
      "Ġbuscas": 7345,
      "Ġassinada": 7346,
      "Ġracial": 7347,
      "ĠEpisÃ³dios": 7348,
      "ĠtrajetÃ³ria": 7349,
      "Jo": 7350,
      "til": 7351,
      "unda": 7352,
      "Ġqueix": 7353,
      "ĠPorÃ©m": 7354,
      "ĠNatal": 7355,
      "Ġnormalmente": 7356,
      "ĠimÃ³veis": 7357,
      "35": 7358,
      "Ġbanh": 7359,
      "econ": 7360,
      "ĠLÃª": 7361,
      "Ġseguiu": 7362,
      "Ġarte": 7363,
      "Ġcapita": 7364,
      "Ġlevaram": 7365,
      "Ġhomossex": 7366,
      "Ġfechamento": 7367,
      "Ġnarrativa": 7368,
      "ĠescravidÃ£o": 7369,
      "ĠAlegre": 7370,
      "Ġrique": 7371,
      "ĠAstra": 7372,
      "ĠDec": 7373,
      "ĠÃ¡l": 7374,
      "Ġconsiderados": 7375,
      "ĠSua": 7376,
      "Ġretra": 7377,
      "Ġparalis": 7378,
      "riz": 7379,
      "ĠMundo": 7380,
      "Ġprotagon": 7381,
      "ĠopÃ§Ãµes": 7382,
      "Ġinvestiga": 7383,
      "Ġrod": 7384,
      "ĠemprÃ©st": 7385,
      "Ġmaconha": 7386,
      "ĠinfecÃ§Ã£o": 7387,
      "ĠcaracterÃŃsticas": 7388,
      "ĠUkraine": 7389,
      "Ġfertiliz": 7390,
      "Ġcorrig": 7391,
      "Ġritmo": 7392,
      "Ġdebates": 7393,
      "Outra": 7394,
      "Ġmorreram": 7395,
      "ĠCalheiros": 7396,
      "Ġsuposto": 7397,
      "ĠDeleg": 7398,
      "ĠresoluÃ§Ã£o": 7399,
      "Ġsangue": 7400,
      "Ġrestaurantes": 7401,
      "ischini": 7402,
      "eas": 7403,
      "Ġ&": 7404,
      "ronto": 7405,
      "Ġhim": 7406,
      "Ġ2023": 7407,
      "ĠMarinha": 7408,
      "ection": 7409,
      "ala": 7410,
      "ĠSta": 7411,
      "Ġelog": 7412,
      "Ġconsiderar": 7413,
      "Ġmonitor": 7414,
      "Ġargumentos": 7415,
      "Ġdesaparecimento": 7416,
      "ĠAvenida": 7417,
      "Ġtranqu": 7418,
      "Ġstar": 7419,
      "ĠMay": 7420,
      "graf": 7421,
      "Ġcausar": 7422,
      "Ġrefug": 7423,
      "ĠpeÃ§as": 7424,
      "Ġgroup": 7425,
      "stem": 7426,
      "udes": 7427,
      "opes": 7428,
      "ologias": 7429,
      "Ġfechar": 7430,
      "ĠsilÃªncio": 7431,
      "iter": 7432,
      "ĠSA": 7433,
      "Ġprecoce": 7434,
      "Ġguer": 7435,
      "ĠQueiroz": 7436,
      "Ġalternativa": 7437,
      "ĠPrecisa": 7438,
      "ĠPont": 7439,
      "Ġconfigu": 7440,
      "ĠWal": 7441,
      "nderson": 7442,
      "ĠtributÃ¡ria": 7443,
      "Ġfr": 7444,
      "tolog": 7445,
      "ÃŃrito": 7446,
      "Ġnegras": 7447,
      "Ġchamados": 7448,
      "ĠmandatÃ¡rio": 7449,
      "ĠGilmar": 7450,
      "ntemente": 7451,
      "eiÃ§Ãµes": 7452,
      "Nesse": 7453,
      "ound": 7454,
      "Ġporte": 7455,
      "acos": 7456,
      "Ġchuva": 7457,
      "ĠclimÃ¡ticas": 7458,
      "Gu": 7459,
      "ĠÃ¡udios": 7460,
      "Ġchamadas": 7461,
      "ĠPoderes": 7462,
      "Ġsemelhantes": 7463,
      "rist": 7464,
      "Ġpic": 7465,
      "obil": 7466,
      "ĠJav": 7467,
      "Ġcorpos": 7468,
      "ĠchÃ£o": 7469,
      "Ġnegativa": 7470,
      "ĠIsrael": 7471,
      "ÃŃmbol": 7472,
      "Ġconjunt": 7473,
      "Ġessencial": 7474,
      "Ġrosto": 7475,
      "ĠEr": 7476,
      "act": 7477,
      "ĠalÃŃqu": 7478,
      "ĠTo": 7479,
      "portes": 7480,
      "andemia": 7481,
      "Ġcoronel": 7482,
      "ĠreforÃ§a": 7483,
      "ĠreligiÃ£o": 7484,
      "Ġdescoberta": 7485,
      "Ġintervalo": 7486,
      "MP": 7487,
      "rob": 7488,
      "Ġtempor": 7489,
      "Ġmex": 7490,
      "ĠorÃ§": 7491,
      "ÃŃlios": 7492,
      "Ġobserva": 7493,
      "Ġrecorrer": 7494,
      "Ġplaneta": 7495,
      "ĠAgric": 7496,
      "reiras": 7497,
      "ĠGeraldo": 7498,
      "57": 7499,
      "ght": 7500,
      "Ġfunc": 7501,
      "Ġcomer": 7502,
      "ĠAN": 7503,
      "ĠMic": 7504,
      "Ġmill": 7505,
      "Ġmanifestou": 7506,
      "Ġequipes": 7507,
      "Ġgerente": 7508,
      "Ġrespectivamente": 7509,
      "Ġabordagem": 7510,
      "ĠPhill": 7511,
      "'\",": 7512,
      "Ġaeroporto": 7513,
      "Ġpux": 7514,
      "enÃ¡rios": 7515,
      "ĠCha": 7516,
      "ĠMin": 7517,
      "grafia": 7518,
      "Ġmodelos": 7519,
      "ĠmÃ£es": 7520,
      "Ġprocurar": 7521,
      "Ġacompanhado": 7522,
      "ĠRegiÃ£o": 7523,
      "ĠespÃ©cies": 7524,
      "Ġindependente": 7525,
      "ĠcÃ¡": 7526,
      "Ġseca": 7527,
      "Ġapartamento": 7528,
      "Ġaliado": 7529,
      "Ġdecis": 7530,
      "Ġcausou": 7531,
      "ĠKal": 7532,
      "Ġdisputar": 7533,
      "ĠGuilherme": 7534,
      "Ġcalor": 7535,
      "teriormente": 7536,
      "ĠUniversity": 7537,
      "bu": 7538,
      "ium": 7539,
      "Ġfrio": 7540,
      "essÃµes": 7541,
      "velop": 7542,
      "executivo": 7543,
      "08": 7544,
      "AFP": 7545,
      "Ġfeliz": 7546,
      "ĠVladimir": 7547,
      "Ġconfronto": 7548,
      "ĠProte": 7549,
      "Ġquiser": 7550,
      "Ġentregar": 7551,
      "ĠIPCA": 7552,
      "Zeneca": 7553,
      "Ġmach": 7554,
      "etes": 7555,
      "Ġregional": 7556,
      "Ġcarga": 7557,
      "Ġreflet": 7558,
      "Ġdesenvolver": 7559,
      "Ġfechado": 7560,
      "ĠpuniÃ§Ã£o": 7561,
      "Ġdesresp": 7562,
      "Ġestes": 7563,
      "ĠexposiÃ§Ã£o": 7564,
      "ĠDF": 7565,
      "ĠUnidas": 7566,
      "Ġvacinar": 7567,
      "Quest": 7568,
      "remos": 7569,
      "Ġanalistas": 7570,
      "eganistÃ£o": 7571,
      "miss": 7572,
      "ĠCat": 7573,
      "Ġga": 7574,
      "Ġtrabalham": 7575,
      "Ġlojas": 7576,
      "Ġnew": 7577,
      "Ġlist": 7578,
      "oco": 7579,
      "Ġsays": 7580,
      "Ġenviar": 7581,
      "Ġpadre": 7582,
      "ossi": 7583,
      "Brasil": 7584,
      "ĠcÃ©re": 7585,
      "itaÃ§Ãµes": 7586,
      "ĠagrÃŃc": 7587,
      "Ġantigo": 7588,
      "ĠÃītica": 7589,
      "Ġdestaque": 7590,
      "Ġsuspend": 7591,
      "ÃŃmp": 7592,
      "ĠCristiano": 7593,
      "ĠNaÃ§Ãµes": 7594,
      "ĠNeste": 7595,
      "Ġ57": 7596,
      "Ġtrabalhou": 7597,
      "Estamos": 7598,
      "Ġbeing": 7599,
      "Ġguarda": 7600,
      "Ġretroc": 7601,
      "Ġzero": 7602,
      "ĠLucas": 7603,
      "Ġtemperatura": 7604,
      "ĠPhillips": 7605,
      "oda": 7606,
      "ĠHer": 7607,
      "ĠlicitaÃ§Ã£o": 7608,
      "ĠproporÃ§Ã£o": 7609,
      "BBC": 7610,
      "Ġama": 7611,
      "identes": 7612,
      "Ġveg": 7613,
      "ĠrÃ©": 7614,
      "Ġpropina": 7615,
      "Ġindicam": 7616,
      "Ġoperadora": 7617,
      "ĠadoÃ§Ã£o": 7618,
      "Ġalegou": 7619,
      "gest": 7620,
      "ars": 7621,
      "ĠDou": 7622,
      "lavo": 7623,
      "Ġconex": 7624,
      "Ġassessor": 7625,
      "Ġ52": 7626,
      "Ġproteg": 7627,
      "ĠfavorÃ¡vel": 7628,
      "ĠAfeganistÃ£o": 7629,
      "ĠdiscussÃµes": 7630,
      "ĠdiÃ¡ria": 7631,
      "Ġris": 7632,
      "Ġchegando": 7633,
      "Ġ99": 7634,
      "Ġatuam": 7635,
      "Ġautonomia": 7636,
      "Ġpul": 7637,
      "ĠPo": 7638,
      "ĠdivisÃ£o": 7639,
      "Ġacreditam": 7640,
      "candidatos": 7641,
      "Ġroupas": 7642,
      "ĠVargas": 7643,
      "Ġbecause": 7644,
      "Ġress": 7645,
      "Ġimpress": 7646,
      "Ġcomplic": 7647,
      "Ġgrau": 7648,
      "Ġinfantil": 7649,
      "ĠcentrÃ£o": 7650,
      "Ġsuspeitos": 7651,
      "Ġmandou": 7652,
      "Ġorganiz": 7653,
      "Ġligados": 7654,
      "ĠSegunda": 7655,
      "Ġpequenos": 7656,
      "Ġbrancos": 7657,
      "iras": 7658,
      "ker": 7659,
      "ĠOeste": 7660,
      "ficientes": 7661,
      "Ġinser": 7662,
      "ĠUniversal": 7663,
      "Ġflagrante": 7664,
      "Ġrapaz": 7665,
      "mais": 7666,
      "ary": 7667,
      "Ġcomenta": 7668,
      "Ġeleg": 7669,
      "ĠHa": 7670,
      "Ġlevando": 7671,
      "ĠrazÃµes": 7672,
      "500": 7673,
      "And": 7674,
      "ĠPix": 7675,
      "Ġhow": 7676,
      "Ġmilitary": 7677,
      "ĠlanÃ§ou": 7678,
      "Ġdepoimentos": 7679,
      "Ġexclusiva": 7680,
      "Ġrussos": 7681,
      "JA": 7682,
      "bar": 7683,
      "ispo": 7684,
      "ively": 7685,
      "Ġindo": 7686,
      "ĠTib": 7687,
      "Ġsindic": 7688,
      "IV": 7689,
      "ndos": 7690,
      "Ġcomuns": 7691,
      "ĠPequ": 7692,
      "ĠAlagoas": 7693,
      "Ġradical": 7694,
      "gumas": 7695,
      "Ġcolega": 7696,
      "Ġseguintes": 7697,
      "Ġmotoristas": 7698,
      "ĠremuneraÃ§Ã£o": 7699,
      "Ġciclo": 7700,
      "osos": 7701,
      "onardo": 7702,
      "Ġinstru": 7703,
      "ected": 7704,
      "Ġcoletivo": 7705,
      "Ġfator": 7706,
      "ĠRelaÃ§Ãµes": 7707,
      "ĠTecnologia": 7708,
      "ĠdiagnÃ³stico": 7709,
      "imidade": 7710,
      "Ġenvolvimento": 7711,
      "ember": 7712,
      "Ġ49": 7713,
      "Ġinterfer": 7714,
      "Ġsabemos": 7715,
      "ĠmÃ¡quina": 7716,
      "Ġassassinato": 7717,
      "Jair": 7718,
      "Sab": 7719,
      "gl": 7720,
      "ĠRon": 7721,
      "ĠComitÃª": 7722,
      "ĠAziz": 7723,
      "ĠMÃ¡rcio": 7724,
      "Ġcommod": 7725,
      "Ġagainst": 7726,
      "asta": 7727,
      "Ġlob": 7728,
      "Ã³vel": 7729,
      "irÃ¡": 7730,
      "Ġprogress": 7731,
      "Ġinvestigados": 7732,
      "Ġpudesse": 7733,
      "Sim": 7734,
      "Ġright": 7735,
      "Ġtais": 7736,
      "idaÃ§Ã£o": 7737,
      "ĠPinheiro": 7738,
      "Ãºr": 7739,
      "Ġvacc": 7740,
      "Ã¢nica": 7741,
      "Ġreligioso": 7742,
      "ĠLÃºcia": 7743,
      "Ġcurto": 7744,
      "ĠPoderData": 7745,
      "Ġcomandante": 7746,
      "iab": 7747,
      "ulto": 7748,
      "ĠAnderson": 7749,
      "ough": 7750,
      "Ġbic": 7751,
      "ionÃ¡rios": 7752,
      "Ġpodia": 7753,
      "Ġaglom": 7754,
      "tors": 7755,
      "tua": 7756,
      "Ġpsiqu": 7757,
      "Ġnasceu": 7758,
      "ĠSenior": 7759,
      "Ġromp": 7760,
      "ĠSanitÃ¡ria": 7761,
      "03": 7762,
      "ists": 7763,
      "ĠVista": 7764,
      "Ġdeterminado": 7765,
      "Ġagricult": 7766,
      "Int": 7767,
      "Ġrios": 7768,
      "Ġcaminhoneiros": 7769,
      "jamento": 7770,
      "lamento": 7771,
      "mic": 7772,
      "Ġdin": 7773,
      "Ġlixo": 7774,
      "ĠJap": 7775,
      "Ġincer": 7776,
      "Ġusam": 7777,
      "iental": 7778,
      "Ġdiscursos": 7779,
      "Ġaprovar": 7780,
      "ĠSetembro": 7781,
      "indicato": 7782,
      "Ġtratamentos": 7783,
      "Ġestat": 7784,
      "Ġobst": 7785,
      "ĠConsum": 7786,
      "Ġincluding": 7787,
      "Da": 7788,
      "ivid": 7789,
      "ĠRand": 7790,
      "Ġcompras": 7791,
      "Ġpatroc": 7792,
      "ĠeletrÃ´nica": 7793,
      "ĠcÃ¢mbio": 7794,
      "Ġderam": 7795,
      "ĠRosa": 7796,
      "voz": 7797,
      "Ġcontinuou": 7798,
      "Ġcens": 7799,
      "Ġexon": 7800,
      "hora": 7801,
      "ernas": 7802,
      "ĠLiv": 7803,
      "rilha": 7804,
      "Ġrevog": 7805,
      "ĠsanÃ§Ãµes": 7806,
      "Ġtrabalhava": 7807,
      "Ġchinesa": 7808,
      "ĠrecomendaÃ§Ã£o": 7809,
      "Atual": 7810,
      "Or": 7811,
      "Ġever": 7812,
      "Ġcolon": 7813,
      "Ġcompleto": 7814,
      "Conf": 7815,
      "ĠagressÃµes": 7816,
      "ĠprincÃŃpios": 7817,
      "Podemos": 7818,
      "ĠMedicina": 7819,
      "ĠtelevisÃ£o": 7820,
      "pes": 7821,
      "uito": 7822,
      "Ġestiver": 7823,
      "Ġinsist": 7824,
      "ĠPolic": 7825,
      "ĠprovÃ¡vel": 7826,
      "Ġiniciou": 7827,
      "ĠurgÃªncia": 7828,
      "Ġdisponibiliz": 7829,
      "Ġextraord": 7830,
      "ĠIbama": 7831,
      "Ġpassageiros": 7832,
      "Ġ+": 7833,
      "quio": 7834,
      "ĠCria": 7835,
      "Ġget": 7836,
      "Ġescrito": 7837,
      "Ġquerer": 7838,
      "Ġrespei": 7839,
      "ĠmineraÃ§Ã£o": 7840,
      "Ġpresidentes": 7841,
      "Ġgeralmente": 7842,
      "ĠInscreva": 7843,
      "Ġpression": 7844,
      "elicÃ³p": 7845,
      "Arquivo": 7846,
      "Ġinterromp": 7847,
      "Diante": 7848,
      "Todos": 7849,
      "wan": 7850,
      "iat": 7851,
      "eiramente": 7852,
      "Ġbru": 7853,
      "Ġconsideram": 7854,
      "Ġconsiderou": 7855,
      "Ġregulament": 7856,
      "SÃ³": 7857,
      "vÃ£o": 7858,
      "Ġcerc": 7859,
      "emat": 7860,
      "Ġprelim": 7861,
      "Ġcorrup": 7862,
      "vidÃªncia": 7863,
      "Ġpassagens": 7864,
      "ĠfarmacÃªut": 7865,
      "ĠNasc": 7866,
      "ĠGre": 7867,
      "Ġrurais": 7868,
      "ĠEstudos": 7869,
      "ĠrepresentaÃ§Ã£o": 7870,
      "Ġargument": 7871,
      "Ġarquiv": 7872,
      "Ġjustificativa": 7873,
      "Ġadmitiu": 7874,
      "Per": 7875,
      "Ġfe": 7876,
      "Ġvendo": 7877,
      "ĠlÃ³gica": 7878,
      "dep": 7879,
      "Ġpreg": 7880,
      "ndepend": 7881,
      "opol": 7882,
      "ĠconfusÃ£o": 7883,
      "iverso": 7884,
      "Ġfabric": 7885,
      "99": 7886,
      "Ġfasc": 7887,
      "Ġjo": 7888,
      "fore": 7889,
      "Ġ54": 7890,
      "ĠtrÃ¢nsito": 7891,
      "Ġvacinados": 7892,
      "Ġveloc": 7893,
      "Ġeurope": 7894,
      "irou": 7895,
      "Ġ:": 7896,
      "Ġlitoral": 7897,
      "Ġnaquela": 7898,
      "fort": 7899,
      "prefeito": 7900,
      "Ġrecebem": 7901,
      "Ġconvite": 7902,
      "ĠeconÃ´micas": 7903,
      "ĠAgricultura": 7904,
      "Rec": 7905,
      "ĠdÃ£o": 7906,
      "ĠBal": 7907,
      "ĠAlv": 7908,
      "Ġeven": 7909,
      "Ġinformar": 7910,
      "Ġaplicar": 7911,
      "Ġturma": 7912,
      "ĠPlano": 7913,
      "ĠpeÃ§a": 7914,
      "Ġmonth": 7915,
      "Inf": 7916,
      "Ġafirmaram": 7917,
      "ĠÃ¡rvores": 7918,
      "ĠSudeste": 7919,
      "Ġigu": 7920,
      "ulando": 7921,
      "Ġgest": 7922,
      "odas": 7923,
      "Ġabre": 7924,
      "Ġpoderes": 7925,
      "ĠinstÃ¢ncia": 7926,
      "Ġrealizados": 7927,
      "Ġsentir": 7928,
      "Ġbases": 7929,
      "Ġadotar": 7930,
      "Ġaproximadamente": 7931,
      "Ġrendimento": 7932,
      "ĠtragÃ©dia": 7933,
      "zas": 7934,
      "olfo": 7935,
      "Ġresul": 7936,
      "rud": 7937,
      "Ġdiretores": 7938,
      "Ġaven": 7939,
      "ĠsanitÃ¡ria": 7940,
      "Ġfornecer": 7941,
      "Ġrejei": 7942,
      "ĠpreservaÃ§Ã£o": 7943,
      "espera": 7944,
      "Ġcortes": 7945,
      "Ġ2004": 7946,
      "Ġretirar": 7947,
      "Ġreflex": 7948,
      "Ġpromet": 7949,
      "54": 7950,
      "Ġdil": 7951,
      "Ġlos": 7952,
      "ĠPaes": 7953,
      "ĠAlguns": 7954,
      "grad": 7955,
      "ĠnecessÃ¡rias": 7956,
      "Ġfundos": 7957,
      "Ġentende": 7958,
      "Ġbanda": 7959,
      "ĠemergÃªncia": 7960,
      "Ġalternativas": 7961,
      "cha": 7962,
      "men": 7963,
      "Ãĩ": 7964,
      "inÃ§Ã£o": 7965,
      "ĠMara": 7966,
      "Ġexames": 7967,
      "Ġpreenc": 7968,
      "Ġdestac": 7969,
      "Esses": 7970,
      "ĠalteraÃ§Ãµes": 7971,
      "Ġcomerciais": 7972,
      "idental": 7973,
      "DC": 7974,
      "Ġlingu": 7975,
      "Ġeleitorado": 7976,
      "ĠconsequÃªncia": 7977,
      "ĠTorres": 7978,
      "Ġtrouxe": 7979,
      "It": 7980,
      "pest": 7981,
      "rejas": 7982,
      "ĠemissÃµes": 7983,
      "ĠagressÃ£o": 7984,
      "ranÃ§as": 7985,
      "Ġ1980": 7986,
      "Ġcontrolar": 7987,
      "ĠpublicaÃ§Ãµes": 7988,
      "36": 7989,
      "letas": 7990,
      "Ġdesac": 7991,
      "ĠNor": 7992,
      "Ġconspira": 7993,
      "ford": 7994,
      "Ġadultos": 7995,
      "ture": 7996,
      "Ġoficialmente": 7997,
      "EntÃ£o": 7998,
      "Ġexclusivo": 7999,
      "Ġstre": 8000,
      "Ġarmados": 8001,
      "Ġcuidados": 8002,
      "ĠIndÃŃgena": 8003,
      "Ġcostumam": 8004,
      "Ġrigor": 8005,
      "Ġgay": 8006,
      "ĠRua": 8007,
      "ĠKar": 8008,
      "Ġprivadas": 8009,
      "Ġoferece": 8010,
      "Ġranking": 8011,
      "Le": 8012,
      "kes": 8013,
      "ĠsÃŃmbol": 8014,
      "quinas": 8015,
      "reiro": 8016,
      "tava": 8017,
      "ĠMÃ©d": 8018,
      "Ġalvos": 8019,
      "ĠprevenÃ§Ã£o": 8020,
      "ĠatualizaÃ§Ã£o": 8021,
      "echn": 8022,
      "Ġcripto": 8023,
      "ĠdefiniÃ§Ã£o": 8024,
      "Ġrelacionadas": 8025,
      "Ġestivesse": 8026,
      "ĠJavari": 8027,
      "Ġox": 8028,
      "elmente": 8029,
      "atas": 8030,
      "ĠDurante": 8031,
      "cond": 8032,
      "Ġetc": 8033,
      "ĠconsciÃªncia": 8034,
      "Ġacordos": 8035,
      "Ġunder": 8036,
      "arial": 8037,
      "ĠLopes": 8038,
      "oraima": 8039,
      "Ġformato": 8040,
      "Ã©spera": 8041,
      "Ġrepresentam": 8042,
      "Ġjogar": 8043,
      "iologia": 8044,
      "Ġemissora": 8045,
      "Ġindigenista": 8046,
      "ĠRogÃ©rio": 8047,
      "ĠAÃŃ": 8048,
      "ĠBern": 8049,
      "Ġexport": 8050,
      "hael": 8051,
      "ĠDam": 8052,
      "ĠII": 8053,
      "ape": 8054,
      "Ġleve": 8055,
      "ĠcirculaÃ§Ã£o": 8056,
      "ĠPesquisas": 8057,
      "Ġrotina": 8058,
      "ĠAdministraÃ§Ã£o": 8059,
      "ĠfÃ¡brica": 8060,
      "ĠProteÃ§Ã£o": 8061,
      "fra": 8062,
      "Ġestuda": 8063,
      "igaÃ§Ã£o": 8064,
      "ĠNesta": 8065,
      "otas": 8066,
      "Ġconceito": 8067,
      "Ġantiga": 8068,
      "Ġcobrar": 8069,
      "Ġpacote": 8070,
      "Ġintelect": 8071,
      "ĠsatÃ©l": 8072,
      "ĠConsumidor": 8073,
      "Ou": 8074,
      "iÃ¡vel": 8075,
      "jar": 8076,
      "ility": 8077,
      "rough": 8078,
      "Ġantidem": 8079,
      "Ġdivulgados": 8080,
      "Ġorganizado": 8081,
      "Ġminim": 8082,
      "ĠInterc": 8083,
      "Ġpequenas": 8084,
      "Ġplanta": 8085,
      "ĠespecÃŃfico": 8086,
      "ĠOutros": 8087,
      "Ġamizades": 8088,
      "ka": 8089,
      "Ġfantas": 8090,
      "Ġprox": 8091,
      "Ġconstante": 8092,
      "ĠHo": 8093,
      "teriores": 8094,
      "Ġhomof": 8095,
      "ney": 8096,
      "Ġpoucas": 8097,
      "Ġnaturais": 8098,
      "Ġtrechos": 8099,
      "Ġpolitical": 8100,
      "Ġtucano": 8101,
      "ĠAstraZeneca": 8102,
      "ÃŃola": 8103,
      "ative": 8104,
      "ope": 8105,
      "Ġexplos": 8106,
      "ĠPMs": 8107,
      "Ġplanejamento": 8108,
      "ĠpolÃªmica": 8109,
      "Ġterreno": 8110,
      "Ġcum": 8111,
      "Ġmol": 8112,
      "ined": 8113,
      "Ġapel": 8114,
      "Ġmass": 8115,
      "Ġmanifestar": 8116,
      "Ġjustificar": 8117,
      "Ġsugere": 8118,
      "Ġhotel": 8119,
      "den": 8120,
      "get": 8121,
      "Ġbriga": 8122,
      "antar": 8123,
      "ĠHu": 8124,
      "ĠHam": 8125,
      "Ġdescump": 8126,
      "Ġ2002": 8127,
      "Ġartigos": 8128,
      "Ġreuniu": 8129,
      "Ġprivados": 8130,
      "Ġbarra": 8131,
      "ĠdiscriminaÃ§Ã£o": 8132,
      "Ġduring": 8133,
      "edas": 8134,
      "Ġexpres": 8135,
      "day": 8136,
      "ĠâĢĭ": 8137,
      "Ġconsist": 8138,
      "Ġdiretr": 8139,
      "Ġimpuls": 8140,
      "Ġcuidado": 8141,
      "Ġdistancia": 8142,
      "Rede": 8143,
      "Th": 8144,
      "fas": 8145,
      "ons": 8146,
      "ental": 8147,
      "ĠinÃºm": 8148,
      "ĠRoraima": 8149,
      "ĠLo": 8150,
      "Ġestabilidade": 8151,
      "Ġmanob": 8152,
      "Ġprecisou": 8153,
      "Ġestabelecimento": 8154,
      "Ġtropas": 8155,
      "ĠEscola": 8156,
      "ĠTesouro": 8157,
      "Ġarmazen": 8158,
      "hal": 8159,
      "Ġfoc": 8160,
      "Ġprosse": 8161,
      "Ġpolar": 8162,
      "Ġverde": 8163,
      "ĠobrigaÃ§Ã£o": 8164,
      "Ġanunciado": 8165,
      "ĠLeandro": 8166,
      "ĠTrÃªs": 8167,
      "ĠrÃ¡dio": 8168,
      "Ġferramenta": 8169,
      "Ciro": 8170,
      "umento": 8171,
      "ĠNev": 8172,
      "ĠLond": 8173,
      "Este": 8174,
      "ĠSantana": 8175,
      "Ġear": 8176,
      "isos": 8177,
      "riram": 8178,
      "Ġdesv": 8179,
      "ĠUr": 8180,
      "ĠUru": 8181,
      "udia": 8182,
      "Ġinfl": 8183,
      "Ġvalidade": 8184,
      "Ġcomete": 8185,
      "Ġconhecer": 8186,
      "Ġface": 8187,
      "ĠParis": 8188,
      "Ġsorte": 8189,
      "Ġexemplos": 8190,
      "Ġnotic": 8191,
      "Ġconfirma": 8192,
      "Ġpermanente": 8193,
      "Ġdescobriu": 8194,
      "ĠDelegacia": 8195,
      "Caso": 8196,
      "lÃ¢ndia": 8197,
      "ðŁ": 8198,
      "Ġif": 8199,
      "Ġneu": 8200,
      "urar": 8201,
      "Ġpresa": 8202,
      "ĠgraÃ§as": 8203,
      "Ġconstrang": 8204,
      "ĠilÃŃc": 8205,
      "ĠcomprovaÃ§Ã£o": 8206,
      "ĠevangÃ©lico": 8207,
      "Continu": 8208,
      "ĠcÃ©rebro": 8209,
      "dec": 8210,
      "way": 8211,
      "Ġaquelas": 8212,
      "Ġapontado": 8213,
      "Ġurg": 8214,
      "ĠCorre": 8215,
      "ĠespaÃ§os": 8216,
      "Ġenfrenta": 8217,
      "Ġenfrentamento": 8218,
      "tim": 8219,
      "Ġu": 8220,
      "roz": 8221,
      "ĠItam": 8222,
      "eber": 8223,
      "Ġ75": 8224,
      "rime": 8225,
      "Ġhealth": 8226,
      "ĠremÃ©dio": 8227,
      "ĠanÃ¡lises": 8228,
      "Ġilegais": 8229,
      "Ġhidro": 8230,
      "ĠEstadÃ£o": 8231,
      "Ġinstrumento": 8232,
      "ĠvÃŃnculo": 8233,
      "Pesqu": 8234,
      "Ġpetro": 8235,
      "ĠvÃ©spera": 8236,
      "aturas": 8237,
      "Ġportas": 8238,
      "Ġalmo": 8239,
      "ĠOlavo": 8240,
      "ĠTai": 8241,
      "ĠfaÃ§a": 8242,
      "ĠCarn": 8243,
      "ĠPodemos": 8244,
      "Ġsonho": 8245,
      "ĠTurma": 8246,
      "Ġnazista": 8247,
      "ĠcomposiÃ§Ã£o": 8248,
      "Ġantidemocr": 8249,
      "anhÃ£": 8250,
      "Ġ65": 8251,
      "Ġmorador": 8252,
      "Ġcanais": 8253,
      "Ġfinanceiros": 8254,
      "ĠAtl": 8255,
      "Ġargumenta": 8256,
      "Ġpermanecer": 8257,
      "Ġpegou": 8258,
      "ĠmobilizaÃ§Ã£o": 8259,
      "tÃ¡": 8260,
      "ĦâĢĭ": 8261,
      "Ġnut": 8262,
      "ĠAv": 8263,
      "Ã³x": 8264,
      "Ġabra": 8265,
      "Ġchances": 8266,
      "Ġfalei": 8267,
      "Ġtril": 8268,
      "ĠEssas": 8269,
      "doso": 8270,
      "ĠThis": 8271,
      "Ġcumprimento": 8272,
      "ĠClÃ¡": 8273,
      "ĠParlam": 8274,
      "Ġsupport": 8275,
      "Ġdesculpas": 8276,
      "ĠâĸĦâĢĭ": 8277,
      "Ġmun": 8278,
      "icidade": 8279,
      "tale": 8280,
      "ĠdoaÃ§Ãµes": 8281,
      "ĠCu": 8282,
      "itora": 8283,
      "ĠEsses": 8284,
      "ording": 8285,
      "efinaria": 8286,
      "efficient": 8287,
      "Ġuni": 8288,
      "Ġintegridade": 8289,
      "Ġpalan": 8290,
      "Ġformado": 8291,
      "Ġcinema": 8292,
      "Ġpensamento": 8293,
      "Ġinformado": 8294,
      "ĠFrancischini": 8295,
      "entado": 8296,
      "Ġsed": 8297,
      "agner": 8298,
      "Ġmesmas": 8299,
      "Ġ53": 8300,
      "Ġpagos": 8301,
      "Ġdeterminar": 8302,
      "Ġargumentou": 8303,
      "Ġestimativa": 8304,
      "Ġmobiliz": 8305,
      "Ġsystem": 8306,
      "Neste": 8307,
      "eis": 8308,
      "ĠBut": 8309,
      "Ġdesconf": 8310,
      "Ġmelhora": 8311,
      "Ġpopulation": 8312,
      "Ġfluxo": 8313,
      "zer": 8314,
      "oni": 8315,
      "Ġatores": 8316,
      "Ġcontinuam": 8317,
      "Ġvisual": 8318,
      "assez": 8319,
      "Ġidentificado": 8320,
      "Ġsigil": 8321,
      "Ġdetalh": 8322,
      "Ġrecuperar": 8323,
      "ĠbeneficiÃ¡rios": 8324,
      "Ġluxo": 8325,
      "EJA": 8326,
      "Rel": 8327,
      "ians": 8328,
      "Ġbon": 8329,
      "Ġapp": 8330,
      "Ã¢mica": 8331,
      "Ġcausas": 8332,
      "Ġassinatura": 8333,
      "Ġprotocolo": 8334,
      "ĠgestaÃ§Ã£o": 8335,
      "eÃ§a": 8336,
      "Ġbast": 8337,
      "Ġsobera": 8338,
      "idariedade": 8339,
      "Ġvelocidade": 8340,
      "Ġcof": 8341,
      "Ġcoefficient": 8342,
      "Ġexpor": 8343,
      "Ġcrist": 8344,
      "Ġ51": 8345,
      "Ġdefendem": 8346,
      "Ġleil": 8347,
      "Ġatacar": 8348,
      "ÂºC": 8349,
      "Ġtentam": 8350,
      "ĠÃŃndices": 8351,
      "ĠindependÃªncia": 8352,
      "Ġsatisf": 8353,
      "ĠIntercept": 8354,
      "ĠvÃ¡l": 8355,
      "ĠCin": 8356,
      "ĠMc": 8357,
      "Ġentregue": 8358,
      "Ġfilmes": 8359,
      "nstitucional": 8360,
      "Ġsecre": 8361,
      "Ġindicou": 8362,
      "Ġincluir": 8363,
      "Ġpalco": 8364,
      "Ġimediato": 8365,
      "Ġoportunidades": 8366,
      "Ġigrejas": 8367,
      "Ġoffs": 8368,
      "Ab": 8369,
      "erÃ¢ncia": 8370,
      "Ġdobro": 8371,
      "Ã³t": 8372,
      "ung": 8373,
      "Ġguard": 8374,
      "Ġtornando": 8375,
      "ĠCentrÃ£o": 8376,
      "Ġerros": 8377,
      "Ġbolsa": 8378,
      "ĠCaso": 8379,
      "ĠMariana": 8380,
      "Ġressaltou": 8381,
      "Ġvencer": 8382,
      "Ġsegmento": 8383,
      "ÃŃba": 8384,
      "ati": 8385,
      "Ġapost": 8386,
      "ants": 8387,
      "ĠlegÃŃt": 8388,
      "ĠdeterminaÃ§Ã£o": 8389,
      "38": 8390,
      "votou": 8391,
      "Ġpeix": 8392,
      "ovimento": 8393,
      "ĠescÃ¢nd": 8394,
      "Ġviab": 8395,
      "Ġexcep": 8396,
      "Ġcrescente": 8397,
      "ĠremÃ©dios": 8398,
      "Ġrussa": 8399,
      "Ġdesafio": 8400,
      "Ġmicro": 8401,
      "ped": 8402,
      "nts": 8403,
      "orno": 8404,
      "Ġredor": 8405,
      "ĠSec": 8406,
      "ĠBer": 8407,
      "etos": 8408,
      "Ġcompon": 8409,
      "Ġcasamento": 8410,
      "Ġfalas": 8411,
      "ĠEstÃ¡": 8412,
      "Ġnegacion": 8413,
      "Ġreformas": 8414,
      "ĠCapit": 8415,
      "Ġtanta": 8416,
      "Ġprivileg": 8417,
      "tod": 8418,
      "Ġembal": 8419,
      "ÃŃfico": 8420,
      "ensÃµes": 8421,
      "Ġthrough": 8422,
      "Ġapresentados": 8423,
      "Ġdiversidade": 8424,
      "Ġpresidenciais": 8425,
      "Ġenviados": 8426,
      "ĠManifesta": 8427,
      "Ġtestemunhas": 8428,
      "CenÃ¡rio": 8429,
      "Marc": 8430,
      "tivos": 8431,
      "Ġmiss": 8432,
      "Ġnessas": 8433,
      "Ġreiv": 8434,
      "Ġsupl": 8435,
      "inte": 8436,
      "inter": 8437,
      "Ġ56": 8438,
      "ificaÃ§Ãµes": 8439,
      "Ġacredito": 8440,
      "Ġcriminoso": 8441,
      "Ġreservas": 8442,
      "Ġrequis": 8443,
      "ĠevoluÃ§Ã£o": 8444,
      "Ġhomenagem": 8445,
      "Ġtreinamento": 8446,
      "Ãļ": 8447,
      "ĠquÃŃm": 8448,
      "row": 8449,
      "ndice": 8450,
      "guei": 8451,
      "heu": 8452,
      "Ġmedia": 8453,
      "Ġindicar": 8454,
      "ĠProjeto": 8455,
      "Ġmarcado": 8456,
      "Ġdiretoria": 8457,
      "Ġpronuncia": 8458,
      "imarÃ£es": 8459,
      "Ġtitular": 8460,
      "ĠKalil": 8461,
      "arat": 8462,
      "Ġaper": 8463,
      "sticos": 8464,
      "Ġperdas": 8465,
      "Ġ58": 8466,
      "ĠEmbora": 8467,
      "Ġefica": 8468,
      "ĠElas": 8469,
      "eijÃ£o": 8470,
      "%;": 8471,
      "Ind": 8472,
      "ove": 8473,
      "Ġchec": 8474,
      "Ġparticiparam": 8475,
      "ĠdiferenÃ§as": 8476,
      "ĠJohn": 8477,
      "Ġderivados": 8478,
      "Ġcoordenadora": 8479,
      "Ġestoque": 8480,
      "Ġsm": 8481,
      "Ġmira": 8482,
      "Ġtribun": 8483,
      "ĠAir": 8484,
      "Ġlangu": 8485,
      "Ġdeslig": 8486,
      "intend": 8487,
      "enses": 8488,
      "Ġenga": 8489,
      "Ġmeninas": 8490,
      "Ġeventuais": 8491,
      "Ġinsumos": 8492,
      "Ġmercados": 8493,
      "Ġfundador": 8494,
      "Ġcerveja": 8495,
      "Ġatinge": 8496,
      "Ġdetec": 8497,
      "Ġexclusivamente": 8498,
      "Ġabastecimento": 8499,
      "ĠhÃŃdrica": 8500,
      "ues": 8501,
      "alutam": 8502,
      "edoria": 8503,
      "ĠFederaÃ§Ã£o": 8504,
      "ĠLeste": 8505,
      "Ġsuperiores": 8506,
      "ĠestratÃ©gias": 8507,
      "ĠmÃŃnimos": 8508,
      "Ġatraso": 8509,
      "Ġindividuais": 8510,
      "Ġdaqui": 8511,
      "Ġcongress": 8512,
      "direita": 8513,
      "ĠprovisÃ³ria": 8514,
      "Ġriqueza": 8515,
      "raria": 8516,
      "Ġespont": 8517,
      "ulados": 8518,
      "ecion": 8519,
      "ĠUTI": 8520,
      "orado": 8521,
      "enciado": 8522,
      "arca": 8523,
      "ĠcapitÃ£o": 8524,
      "Ġautos": 8525,
      "Essas": 8526,
      "Ġtomadas": 8527,
      "Ġnecessariamente": 8528,
      "Ġvirtu": 8529,
      "Ġderrubar": 8530,
      "Ġmagistrado": 8531,
      "ĠSoares": 8532,
      "ĠRenato": 8533,
      "der": 8534,
      "pat": 8535,
      "ĠcenÃ¡rios": 8536,
      "Ġminhas": 8537,
      "Ġfaria": 8538,
      "ĠButa": 8539,
      "Ġescassez": 8540,
      "Ġinternos": 8541,
      "Ġneut": 8542,
      "ĠterritÃ³rios": 8543,
      "Ġenferm": 8544,
      "etropolitana": 8545,
      "56": 8546,
      "nal": 8547,
      "icÃŃdios": 8548,
      "ovi": 8549,
      "Ġtratado": 8550,
      "Ġelite": 8551,
      "Ġenvio": 8552,
      "Ġinvestigadores": 8553,
      "Ġrespira": 8554,
      "Ġexpand": 8555,
      "Ġolho": 8556,
      "ĠvariaÃ§Ã£o": 8557,
      "ĠinstalaÃ§Ã£o": 8558,
      "Ġessenciais": 8559,
      "Ġsurgiu": 8560,
      "Ġcircunst": 8561,
      "cl": 8562,
      "ĠMA": 8563,
      "Ġmetod": 8564,
      "Ġthose": 8565,
      "Ġpreced": 8566,
      "ĠArt": 8567,
      "Ġinsu": 8568,
      "Ġveem": 8569,
      "Ġestejam": 8570,
      "Ġequipamento": 8571,
      "Ġtransformar": 8572,
      "Ġsequest": 8573,
      "eituras": 8574,
      "ĠBez": 8575,
      "seis": 8576,
      "Ġadd": 8577,
      "Ġpoint": 8578,
      "Ġatende": 8579,
      "ĠeconÃ´micos": 8580,
      "Ġrefere": 8581,
      "Ġwhile": 8582,
      "Ġganhos": 8583,
      "Ġprovocou": 8584,
      "Ġroubo": 8585,
      "ĠconcentraÃ§Ã£o": 8586,
      "ĠFabiano": 8587,
      "Ġfraudes": 8588,
      "ĠCampinas": 8589,
      "Ġavenida": 8590,
      "gados": 8591,
      "ĠdÃ©": 8592,
      "Ġgado": 8593,
      "ĠGuimarÃ£es": 8594,
      "Ġparceiros": 8595,
      "ropeu": 8596,
      "Ġinformation": 8597,
      "Ġconcorda": 8598,
      "Universidade": 8599,
      "ĠBoa": 8600,
      "Ġesgo": 8601,
      "ĠSho": 8602,
      "endos": 8603,
      "Ġfalsa": 8604,
      "Ã´nico": 8605,
      "Ġkno": 8606,
      "Ġutilizada": 8607,
      "Ġesperado": 8608,
      "Ġdepender": 8609,
      "Ġsubsid": 8610,
      "ĠNeves": 8611,
      "??": 8612,
      "Novo": 8613,
      "USP": 8614,
      "Ġsanc": 8615,
      "iando": 8616,
      "ÃŃde": 8617,
      "ĠLadeira": 8618,
      "ĠIr": 8619,
      "Ġprest": 8620,
      "Ġusadas": 8621,
      "ĠfunÃ§Ãµes": 8622,
      "Ġobtidos": 8623,
      "RAS": 8624,
      "Ġrastre": 8625,
      "Ã§alves": 8626,
      "Ġlavagem": 8627,
      "ĠCapitÃ³lio": 8628,
      "tane": 8629,
      "Ġsertane": 8630,
      "Ġindign": 8631,
      "ĠAcho": 8632,
      "Ġaprofund": 8633,
      "Ġneed": 8634,
      "IL": 8635,
      "ines": 8636,
      "iness": 8637,
      "ĠPop": 8638,
      "edora": 8639,
      "Ġdesast": 8640,
      "ĠadesÃ£o": 8641,
      "ĠcolÃ©gio": 8642,
      "Ġjornada": 8643,
      "ĠcrÃŃticos": 8644,
      "Ġweek": 8645,
      "Ġfugir": 8646,
      "Ġcarbono": 8647,
      "Ã³n": 8648,
      "hool": 8649,
      "urado": 8650,
      "Ġinterloc": 8651,
      "Ġimprov": 8652,
      "Ġveja": 8653,
      "ĠviolaÃ§Ã£o": 8654,
      "ically": 8655,
      "ĠsubstÃ¢ncias": 8656,
      "Ġcadeira": 8657,
      "ĠnaÃ§Ã£o": 8658,
      "ĠCunha": 8659,
      "Ġler": 8660,
      "ĠTel": 8661,
      "Ġatitude": 8662,
      "ĠJu": 8663,
      "ĠextensÃ£o": 8664,
      "Ġleitura": 8665,
      "ĠAgro": 8666,
      "ĠesforÃ§os": 8667,
      "Ġderrota": 8668,
      "rinho": 8669,
      "elson": 8670,
      "teis": 8671,
      "Ġengan": 8672,
      "Ġoperado": 8673,
      "Ġlembrou": 8674,
      "Ġplantas": 8675,
      "Ġreligiosos": 8676,
      "Ġacionistas": 8677,
      "ĠCopa": 8678,
      "ĠfÃ©rias": 8679,
      "istem": 8680,
      "present": 8681,
      "Ã³rcio": 8682,
      "Ġouvido": 8683,
      "Ġmotocia": 8684,
      "Ġpostagem": 8685,
      "Ġaparelho": 8686,
      "ĠindenizaÃ§Ã£o": 8687,
      "Ġinferior": 8688,
      "micron": 8689,
      "taleza": 8690,
      "gia": 8691,
      "Ġdign": 8692,
      "Ġcem": 8693,
      "Ġtela": 8694,
      "Ġreve": 8695,
      "itler": 8696,
      "Ġpront": 8697,
      "ĠTij": 8698,
      "Ġseguido": 8699,
      "ĠagÃªncias": 8700,
      "Ġadver": 8701,
      "Ġeconomistas": 8702,
      "Ġcalc": 8703,
      "ĠMoscou": 8704,
      "ĠTibira": 8705,
      "ĠButant": 8706,
      "ĠnÃ©": 8707,
      "Ã§ados": 8708,
      "Ġaposta": 8709,
      "Ġresulta": 8710,
      "Ġsemanal": 8711,
      "ĠassociaÃ§Ãµes": 8712,
      "Ġcai": 8713,
      "ĠMand": 8714,
      "ocacia": 8715,
      "Ġentraram": 8716,
      "Ġresto": 8717,
      "Ġsoma": 8718,
      "Ġmedicina": 8719,
      "Ġstud": 8720,
      "ĠsugestÃµes": 8721,
      "ĠJacare": 8722,
      "Ġdesafios": 8723,
      "ĠGonÃ§alves": 8724,
      "Ġpreconceito": 8725,
      "ĠPequim": 8726,
      "inic": 8727,
      "Ġdonos": 8728,
      "Ġnotas": 8729,
      "ĠrecÃ©m": 8730,
      "Ġandar": 8731,
      "Ġsentimento": 8732,
      "Ġbefore": 8733,
      "Ġaplicada": 8734,
      "Ġentendeu": 8735,
      "ĠFernand": 8736,
      "Ã©tricas": 8737,
      "ÃŃssimo": 8738,
      "ĠMourÃ£o": 8739,
      "ĠTransparÃªncia": 8740,
      "Ġcofres": 8741,
      "tÃ³rios": 8742,
      "Ġdevelop": 8743,
      "Ġleste": 8744,
      "Ġconfront": 8745,
      "Ġuniverso": 8746,
      "ĠsustentÃ¡vel": 8747,
      "Ġterminou": 8748,
      "MinistÃ©rio": 8749,
      "Ġproxalutam": 8750,
      "ple": 8751,
      "inf": 8752,
      "Ġtu": 8753,
      "ĠfarÃ¡": 8754,
      "empor": 8755,
      "idata": 8756,
      "Ġrepasse": 8757,
      "Ġlegit": 8758,
      "Ġcontinuidade": 8759,
      "onaVac": 8760,
      "ĠAtualmente": 8761,
      "Ġpersonal": 8762,
      "Ġdesembarg": 8763,
      "Presidente": 8764,
      "ĠvulnerÃ¡veis": 8765,
      "CO": 8766,
      "Temos": 8767,
      "hi": 8768,
      "reza": 8769,
      "arÃ£o": 8770,
      "ĠquÃª": 8771,
      "izam": 8772,
      "Ġintera": 8773,
      "Ġgovernament": 8774,
      "ĠrÃ©u": 8775,
      "ĠInqu": 8776,
      "Ġcuste": 8777,
      "ĠEdilson": 8778,
      "ĠMaia": 8779,
      "Ġconservador": 8780,
      "Atualmente": 8781,
      "37": 8782,
      "inj": 8783,
      "ents": 8784,
      "uminense": 8785,
      "lete": 8786,
      "ĠVir": 8787,
      "ĠHav": 8788,
      "Ġindire": 8789,
      "ĠWe": 8790,
      "ĠWorld": 8791,
      "astecimento": 8792,
      "Ġencontrada": 8793,
      "Ġitem": 8794,
      "ĠLegal": 8795,
      "Ġviral": 8796,
      "can": 8797,
      "tare": 8798,
      "Ġesport": 8799,
      "ĠCer": 8800,
      "ecei": 8801,
      "ĠFa": 8802,
      "ernÃ¡ndez": 8803,
      "Ġevidente": 8804,
      "rativo": 8805,
      "Ġliberal": 8806,
      "ĠmemÃ³ria": 8807,
      "ĠTrabalhadores": 8808,
      "Ġcommodities": 8809,
      "ĠsÃŃ": 8810,
      "inel": 8811,
      "Ġfi": 8812,
      "ĠFux": 8813,
      "Ġ120": 8814,
      "ĠNeg": 8815,
      "pot": 8816,
      "ĠGer": 8817,
      "ĠInformaÃ§Ã£o": 8818,
      "Ġleite": 8819,
      "Ġ2007": 8820,
      "Ġmandar": 8821,
      "Ġpromessa": 8822,
      "Ġvieram": 8823,
      "Ġatrap": 8824,
      "Ġdenunciar": 8825,
      "ĠadversÃ¡rios": 8826,
      "Cap": 8827,
      "Ped": 8828,
      "Ġced": 8829,
      "Ġora": 8830,
      "Ġcotas": 8831,
      "Ġfran": 8832,
      "ĠCuba": 8833,
      "Ġdesign": 8834,
      "Ġachar": 8835,
      "ible": 8836,
      "Ġligada": 8837,
      "Ġdroga": 8838,
      "Ġportaria": 8839,
      "ĠBandeira": 8840,
      "ĠorÃ§ament": 8841,
      "09": 8842,
      "CC": 8843,
      "Jus": 8844,
      "Ġdown": 8845,
      "Ã¡n": 8846,
      "Ġdesper": 8847,
      "Ġdisparo": 8848,
      "ĠligaÃ§Ãµes": 8849,
      "ĠLegislativa": 8850,
      "xicl": 8851,
      "ĠSob": 8852,
      "ĠRed": 8853,
      "ĠHitler": 8854,
      "Ġ95": 8855,
      "ielle": 8856,
      "Ġempregados": 8857,
      "ĠvarÃŃola": 8858,
      "pping": 8859,
      "ĠmÃ©todo": 8860,
      "issos": 8861,
      "ĠâĢĶ,": 8862,
      "Ġmeados": 8863,
      "chad": 8864,
      "Ġilha": 8865,
      "Ġanalisa": 8866,
      "Ã©trica": 8867,
      "Ġprometeu": 8868,
      "49": 8869,
      "qual": 8870,
      "Ġlas": 8871,
      "Ġpele": 8872,
      "Ġabertas": 8873,
      "Ġsexuais": 8874,
      "Ġlevel": 8875,
      "Ġgenoc": 8876,
      "ĠCoronaVac": 8877,
      "Ġperderam": 8878,
      "ĠAnterior": 8879,
      "ĠmÃŃnima": 8880,
      "Ġculp": 8881,
      "Ġhumanidade": 8882,
      "ĠalemÃ£o": 8883,
      "Ġgratuita": 8884,
      "Ġaspectos": 8885,
      "ĠItamara": 8886,
      "xicloroquina": 8887,
      "ĠPE": 8888,
      "Ġles": 8889,
      "Ġverificar": 8890,
      "ĠEnem": 8891,
      "Ġdemandas": 8892,
      "ĠObserv": 8893,
      "Leg": 8894,
      "ificamente": 8895,
      "ĠMarinho": 8896,
      "Ġdefinido": 8897,
      "Ġreconheceu": 8898,
      "ĠÃŃndios": 8899,
      "Ġpromotor": 8900,
      "ĠSergipe": 8901,
      "ĠLago": 8902,
      "ĠdomicÃŃlio": 8903,
      "Ġadministrativo": 8904,
      "ĠParlamentar": 8905,
      "Ġbrig": 8906,
      "ionÃ¡ria": 8907,
      "heus": 8908,
      "Ġresults": 8909,
      "ĠcrÃŃtico": 8910,
      "Ġamplo": 8911,
      "Ġclaramente": 8912,
      "Ġpostagens": 8913,
      "pr": 8914,
      "ures": 8915,
      "Ġpint": 8916,
      "ĠcÃ©l": 8917,
      "Ġinov": 8918,
      "Ġcrises": 8919,
      "Ġnegativo": 8920,
      "Ġcampos": 8921,
      "ĠCardoso": 8922,
      "Ġnecessidades": 8923,
      "Ġprodutor": 8924,
      "ĠpercepÃ§Ã£o": 8925,
      "Ġsurpresa": 8926,
      "Ġprecisava": 8927,
      "Ġescond": 8928,
      "Ġimunizantes": 8929,
      "ĠindivÃŃduo": 8930,
      "ĠFGV": 8931,
      "iocruz": 8932,
      "88": 8933,
      "Ġnisso": 8934,
      "Ġ(...": 8935,
      "ĠIndepend": 8936,
      "Ġconfer": 8937,
      "Ġmeas": 8938,
      "Ġused": 8939,
      "Ġformada": 8940,
      "Outros": 8941,
      "Ġobtido": 8942,
      "ĠconservaÃ§Ã£o": 8943,
      "Procurada": 8944,
      "ĠperseguiÃ§Ã£o": 8945,
      "ĠcooperaÃ§Ã£o": 8946,
      "Ġlanguage": 8947,
      "Ġsor": 8948,
      "orial": 8949,
      "enz": 8950,
      "ĠPant": 8951,
      "ĠBat": 8952,
      "ĠFÃ³rum": 8953,
      "Ġcaut": 8954,
      "Ġ2001": 8955,
      "Ġsomam": 8956,
      "Ġtentativas": 8957,
      "Ġligadas": 8958,
      "ĠsecretÃ¡ria": 8959,
      "Ġconversou": 8960,
      "ĠcaminhÃµes": 8961,
      "Ġpreservar": 8962,
      "Ġcoinc": 8963,
      "Ġdan": 8964,
      "eite": 8965,
      "Ġatira": 8966,
      "Ġcard": 8967,
      "ĠuniÃ£o": 8968,
      "uber": 8969,
      "Ġdistribuido": 8970,
      "ĠclimÃ¡tica": 8971,
      "Procurado": 8972,
      "Ġdemitido": 8973,
      "Ġdistanciamento": 8974,
      "Qual": 8975,
      "Rio": 8976,
      "hip": 8977,
      "ward": 8978,
      "Ġinac": 8979,
      "ĠSus": 8980,
      "Ġrecebendo": 8981,
      "vidamente": 8982,
      "Ġ2005": 8983,
      "Ġfinalmente": 8984,
      "ĠCampo": 8985,
      "Ġobjetivos": 8986,
      "Ġdomiciliar": 8987,
      "ĠTalib": 8988,
      "Ġmecanismo": 8989,
      "Ġintegrante": 8990,
      "Instagram": 8991,
      "Ġfrust": 8992,
      "TU": 8993,
      "procura": 8994,
      "ndios": 8995,
      "ĠPP": 8996,
      "Ã³quio": 8997,
      "Ġhi": 8998,
      "acidade": 8999,
      "acial": 9000,
      "Ġcontinente": 9001,
      "ĠTimes": 9002,
      "Ġrecolh": 9003,
      "ĠestaÃ§Ã£o": 9004,
      "Ġencontraram": 9005,
      "Ġbaseado": 9006,
      "Ġprefeitos": 9007,
      "Ġbarreira": 9008,
      "Ġdescobrir": 9009,
      "Ġpopularidade": 9010,
      "FolhaJus": 9011,
      "ĠCanad": 9012,
      "PolÃŃcia": 9013,
      "Ġfuncional": 9014,
      "echnolog": 9015,
      "Ġhidroxicloroquina": 9016,
      "ĠButantan": 9017,
      "inÃ¡rios": 9018,
      "alt": 9019,
      "Ġsev": 9020,
      "Ġland": 9021,
      "Ġseguem": 9022,
      "Ġvacinal": 9023,
      "ĠlanÃ§ado": 9024,
      "Ġalegando": 9025,
      "Ġdividendos": 9026,
      "ĠInfraestrutura": 9027,
      "ĠdisseminaÃ§Ã£o": 9028,
      "Ġnuclear": 9029,
      "CN": 9030,
      "lando": 9031,
      "ildo": 9032,
      "ĠBe": 9033,
      "ĠMot": 9034,
      "Ġpresencial": 9035,
      "Ġposteriormente": 9036,
      "ĠhistÃ³rias": 9037,
      "Ġacompanhou": 9038,
      "Ġanteriormente": 9039,
      "Ġnewslet": 9040,
      "zaro": 9041,
      "ull": 9042,
      "Ġpronto": 9043,
      "Ġpautas": 9044,
      "Ġchild": 9045,
      "ĠgraÃ§a": 9046,
      "Ġcampe": 9047,
      "ianas": 9048,
      "Ġconhecidos": 9049,
      "Ġquestiona": 9050,
      "ĠParque": 9051,
      "Conforme": 9052,
      "Ġnazismo": 9053,
      "Ġetapa": 9054,
      "Ġproxalutamida": 9055,
      "Ġcitar": 9056,
      "Ġlac": 9057,
      "Ġproxim": 9058,
      "Ġacham": 9059,
      "Ġencerra": 9060,
      "Ġavaliam": 9061,
      "ronment": 9062,
      "Ġmonet": 9063,
      "Ġsecretaria": 9064,
      "Ġcompromissos": 9065,
      "Ġsugeriu": 9066,
      "Ġvizinho": 9067,
      "Ġgolpista": 9068,
      "47": 9069,
      "Me": 9070,
      "vil": 9071,
      "Ġsenadora": 9072,
      "Ġfaixas": 9073,
      "Ġcomentou": 9074,
      "Ġapar": 9075,
      "etas": 9076,
      "Ġtopo": 9077,
      "cool": 9078,
      "enciar": 9079,
      "Ġ85": 9080,
      "Ġcentros": 9081,
      "ĠProxima": 9082,
      "Ġidentificou": 9083,
      "ĠlanÃ§ar": 9084,
      "ĠideolÃ³gica": 9085,
      "Ġvazamento": 9086,
      "Ãł": 9087,
      "ĠpÃ´": 9088,
      "isi": 9089,
      "olf": 9090,
      "ĠMod": 9091,
      "Ġperigo": 9092,
      "Ġsocio": 9093,
      "ĠavanÃ§a": 9094,
      "Ġcaptura": 9095,
      "Ġrepresentar": 9096,
      "Ġsecreto": 9097,
      "afir": 9098,
      "ĠPSD": 9099,
      "Ġatrair": 9100,
      "ĠalcanÃ§ar": 9101,
      "militar": 9102,
      "sol": 9103,
      "tÃ£o": 9104,
      "Ġoeste": 9105,
      "ĠÃ©tica": 9106,
      "Ġdistante": 9107,
      "Ġtrafica": 9108,
      "ĠposiÃ§Ãµes": 9109,
[...]
